00000001100111000100100000100010010011001101100111000111111010001100111001101001100001100010110011000010010000010010100011001011
11110111100101100101110001011000010101100101011101001100010010001110010101000110101110000011001111000011100111111001011100111101
11101100100100101101001000100110110101001110000100010001010101100100100010001010010000011101110010100110011100000101010101000100
11101101011101101111001011001000100110111010100000111001001101010111000010111100110110100010111110100111101001001011011110010101
10101100101101100011010111110000111101101101100000110000001100110010001011101110110110000010000010111101001001001110110100101011
01100100010101011110110000100011000100101011101111000101101100110110010010100001100101111010110101110001011001100111010000111000
00010110010010101111110011000110111000000101010111110001001011011000100101011101111011011110000001111010010110010000101110011011
00000100100111111110111100010101001110100110111010100000001010101111111100111011010001100001101011011010001001001100110011000001
10001001111111010001010110111001011001000100011011101000111110111000011101110101100111000000011101001101100001001001001101011011
11000011010110001101011010101110110100010110101101101101111001110111011101111001001000010000000100000100100110000111101110101101
10011111000011100011111110001010011001000110100000100110010110110010011110010100010110111110110010101011001000111011110111001101
10111101111001000011010110010010000101001000001000011001110110011000101010110100000111001000011000101101000001111111110000010010
10101111010111010000101011011111011110110001011111000100001111100111011100110010011111100100101101100000100010100101001010010010
11101011100110110011010110010011111100001111010101110000101010110100100010111001011010011011000111110100010011000101000110111000
10110000101011011110101100001001101101101010110111000110001000111111000101010111111101001000010000011000100111011000001100010000
10011010100001100010011100110110000110110000110010111000010000010011001110000110101011000001010010101011001101000111011110100111
01100010011001101010111111010111100011111011110000000100001100111000110101101000110101000101100001001110010110110011011011011101
00010000101011011110111000000100010010110110010110100110011100110110101101001011011001111011101110001000010111010000010111101000
00010001111111110100111000011011100000110010001011111110011100000000000001010110011101011001001001000010110110000010001111110110
11001110010000000011111100001010110101001011110100001100111101101110111101110110110010101111010100011101110001110111000110100111
11100011010001011100111010100010101111101100100011101110111001010101010001010010010000001001110000000100110000011011101000111000
11000001001110011001101101101101110111011010001101101001100010010101111101001111101110011011110100011100100011011000100001110100
00111011111111001011001011011011110000010001001011100100100110010011111101100001100111011111111000001100111100011111100111101100
01110011000110011101100010000111101001010101111111010001110111110101001000001000011111111111100101110110100011010011101001011001
11100011010101000011111000010110101000100001010100100001111011000111000010000111000011101101001111110101100101000111100001001011
00010111000010000000110111101101001000010111001101111110001000000000111100111111011101011101101011111110010000101100000010100001
10111011101110001100110101010011100010100011110011100101101011010100010011101010010001010111010000010111010000110101010110001101
01111010000001110000011001010110010101111101111011001000110111001011001011101101101011001010110110011011011111011011011011100101
10100111111101101110110101000011001110101110001110011101000100100100111000011011011001011101011010011110110110000100010100111000
11110111010011010011011011011101011010100000010001101011001011011011101101110100100101100111011010001100011010001011101111011101
00100011001110101101110100010100111101110110011001110000011100001100100010111000001010001110101000001010000000010100011001011100
10010111111010010010001011111111110000010101011110111100001110100110101111110111111011101100101000100000110011110110000001000100
10011001100000001101000000100110101001111101000001010001010101101101110011001001011001011001011011011111011110100001110010010011
10011100100111100100111000111010010001111100100110101111100001111100010101000000101000011011000111010001000100010110101100101001
11011000101111101001110110011100001000011000100111100011101011010111001010001001100111011011000100100110111110100100110110011101
11101101000110001001000110011011011101100111111100000011000100010110001010101010100111010100100011111111110001010100011101101111
00000010010011001100110001101111000011001111100001100111100001001001110010111101101100001101111010011110011111111110111000101010
11111010011001100101111111001100110100010001111011001101001110011010001100010101111011110011111101101001000101000111101110010011
11100000101010110010111101110010011001100111011010100011001010100010111100110010100000110100101011111000011100011000010101101100
11111010101010001111001101000010110110011000001111101110101011100101101000010101100100111011100010011001001011110101001001010000
11101001111101001010101011010001000111101001110000000011011101111000010010110101101101110011111110100111101111001101010001110011
10010111010100101001110100110111011111111010010001010110010100011100110110111001111101001111010110110010101001001110010001001101
11011011001101010110010111001011011100100110000100110000011011010011001000010010100111100010000111111110011100001111111100110101
01000110000100000000111001110011001001101100111110101001101100000100010011100001001110111011011100111010011110110011000001101110
00001001001000110110010001010111000010000000010110011010000110001111000001101101101111111100000010011110010111111000010010100100
11110100101100001110101000011110111011111011101100010111011100100011101000101010011000111111111011101011011101101100000111001111
11110001001011110100100100110001101101110101010010100010011110001100000010001010110010000111100011100111000110100110110000010100
01101111111110010000001011110101011011010110111100100000111110101001011110010111001111111010001110001101011000000100000101100110
01100001000010010001001100100100001011100011011010110010111110101010111001100011010111100000010111110000011001010100001001111100
10011001000100011111111010110010101011000011010000111110000010100000111001001101011011000011000100001101101010111000010111001001
11110011000111110100100101101100001011110111111000001010111101100111010010111011111010010101000101110000100000001011000001110111
00100010100110010100101101111001001110001010110100100011011101011000110010011100101100011111000011001010110111111100010000100011
01110101101110100000101111101011000100100010000110101001001110000000000001001000111110100111011011110111011101001001111110000001
10011000011011110011000010001110000001101011101001011100010101010101001011101000010111001001010101101001000110011111111101100001
10010000101111000101111100001110010110000001101110101110001011111010000111110110100011000100000000110100100110101000011011111000
01101111110010111111000110011101011110110010100010101000010011011101001111110010000000100010111001111101101011110011101000110111
01111000011111100010001010101000110101111110100000111100101101101000001111011111011010001011000110001001001011111111100100110111
10111010110010100110110100011111111011000001011000101110001111101111111100110010001001111101000101010010100001010000000111110001
01111011110001100011011000110101000001110110110001100100000011100110000110010100001100111000001101111011011011001101100100100000
00111010011001000000011111101101011100101100111010100000011110011001001100011011101000101100111011101100000000001100111101110111
10000010011000110111000101100010011111110110010001011001101111100001111101000011001001011011111111010000111101001101000001001010
10011111011101000001001011011000010010100001100010101100110100110010001100100100100110001011001100000101001101101110111110010111
10010100110111101010000010100001100010100101110000011001101101100001011110101101110110100111000000111000100100111011110010101000
10010110010010000000011011101110011011111101111010111101110101011010010110010100001010010001011100101111111000111010101101110101
00110101110001001110111001100100100111011011111110011001111010110000101000111010000111111111010001011000101001101000100001001010
01000000001010011101000100100100101001111110000010011111011110111110011010011110001011110101000011100101010100001100111100101110
11100001101101001010011010101011101101001100000110011000110100001010011011000000110100110010100000000101101010101011110100111110
11100110000000001100100001010011100000100100001101100001000101111111100101101101000111001111101101111001110000100011001010001111
11010011010010011111101001101111110101011101000011011001001011111111000001101101101011111011110100010100010001001001101101100001
10011000100010010100110000010110101011001001100011001000100000101111100001010111011000000101110000001110010000110000010011010011
10101010001101010001010110010110011111101100011001100000101100111111101110110010110001110011000011101010001001000000111001100010
00111011111010101111010100000010011111101000100001100001100101110100110100010011011010110100101001101010101110101011000110001100
11101001001011011010010010100011111100101000001010111101100110011000111101110101100101000000010000100100001110100110101011111100
00110010100100011110010110101001011110000111110111100101111010011010000001100010001111101111000111111010011010010100110010000100
00011101111110011011001010001101110100010001101111011100000101010111011101010011011000001111110000000000110011010011001000011100
01011010000100101000001000110010100101011100000110011111011111101111101010001011011011101101110001001111011001011011010100101100
01100100000110011110010000010110110100001000011100001101111011101100100010101010010001000111010111100111011011011011101000010000
11101110001101000000011011111010111100010010110111111110001110011011011110101001111001111101101010111000111111111100010111101000
00110111111111100111011010110110110100011100110011110101111011010011100011000011001000001011101101000110011111111111101110101001
00000110100000001111110111011111001000000011111100001010001100100101110100010011011100111110111001101000111111010100010111101010
11100000110110101011010010000111100101110110111101010010000000011001101101000011100011010011100101110111000110110001110010001111
01100010010011001100010011000100111001111011101110100110001011111001101100111010101100001000101000111010011111100110010110110000
00000100010111001001000001111111011011100001011011111000111011011001011111110101100100011000001110011100100111110000000111000100
10001100101100100110000000110000000100101001111010000000111001011101001011011111110010111010001110010001000100111011101100100101
00111110101001001111010100111101010101110110100010111110100010010101101110010011100111101100010011011010110100000010010011101000
01000101000000011111101000010111000110011010010101101001011011010101110101011111010100001111111110011000110011011111000100011010
01100100101101101010100110011111000010001011001101111010101110011000100110000100100110101111111100000000000101001111001000100111
01011010110110111110010111011001011101101110011010001010010000000100111001010011100111000001101001111010100001110010101101100100
11111100111011110101011100100001110100001011000000000011010000001101100001100000010001100011110110100110011001110111110110100111
00110001111010110111111001100011010010011101010001001000101011101000001001000001111111100110010011110000101100000011001011101011
10110100000010011010011011110111100001001001100001101101101011110111100011100110111110011011100000001101000111111111011000000001
01101101111111110101110011101111110000110011000111101101011110010100110111110011111010100011001000110011111011010111001101111101
01000100011100110010000100011111001011110111111101001001011010011111001101101100001110001101101111110111001011000111111110110000
00111111101101011100111111110100101000111110011111011101100101011111000110111111000011000010001001110011110110111101000100111101
00010011011101101100000000100101110011011100110010011100101101100011110011011011000001101000101010010110001010110100101001101111
01110111000100011110000101000110101100001110100101101000001010001101111111101111011100100101101001101111110001011000011111000010
00001100111010001100011010011100100000000001100100000011001111011101000010001110111001111111100000111010100011101101110000001000
11111101110000100100011001100000011100101011101101011111111110000010011100100010011110010110010100000011000000010001011111000101
01101111111000110011101101110111111100111011110000000001001010010111111010110100000110001000011100101010100010011010101110101010
11010010100100000111100101000011110111000101111100111000000111111100111000100100110011011100111011001101111000000101100010000000
11110011111111011101000001010100111111001001110100111000101001111000001001000110100011000001001000010110111111111001011100100110
00011000111001011010011100001010100011011100011100011101111100101111001011001010011010111001101010000011110101001000110100001110
01100000011111110101001111101001100001011101100110110100110111001010111011111101110100000001001000011011011111011111100001101100
11110101001111111111100110110111110101011110010101000001111011110111111100001011001001101010010101010010110111001001101010100011
01000110001111101110011111100101101100110010111100100101011110100111110110101111011011011100101000011010011000010111100001000110
10111110001101011001101101001000110101010110010000010001010111011110001000000110000110111100000100100101110100100100111100110101
11111110011111000111000110010001101111011010011100000001110001001111100001011001010111010010000011100011100011000101111010001010
11101110001001100000101111011010001110110010100100111111010110111010111010101110011110011101011010111101001101101101110100000100
10110111101100010101110011001100110110010010111110101000101111110101101101011000111111111001111001110100010101001110000010000100
00011001011100001100010100011111111000101000110010100000000100111010111011010101111101100010011111001101111110100101001000101110
00100001111000110111110000011010100101000001110111001001000010000001100011010010100101000000010001011000010011111001110011010000
01100100000110000111110110000011110010001010110101110110000111001111100110111001100101011110100001111110000111110010011001001000
10011011111000110100010101010001001110000001111001111000101111001010011000111000001100001011010100110101110010011111101100101111
11101001011001011001001100111011111010010101011110100100111010010010010101110111011100110011100111111001111000110110100001110111
10111110111000011011110000011110110010000001001011010000111111011110001101010001001011111110100000110011100111101011001011010110
11111000010111100011010011111000001001000010100010111111111111001010001001101001100101011010000010100011011011100010110011110000
11011111010000110110110100101001110110110110001010010000111000111100110100010001011100101100011100001011100110100010000110111111
11011101011010110110000010000110001101001010010111010101010011110111000000001010011000110100010111111100110110010101100110101001
10011011101010010000110101101100000010111111000100101110001110010011001100001010011111010100000011010101100001000000101000000111
00100111100001111000011110000010101111111010101110101000000000011111101100101110110111010011010001110110011001011101001110100010
10101010110101000000011111110010000100110001001000100101011101011011001010100110100111100001000101100101001011001111001110001010
01000111011111010001010100111101001101000110110001000010101001100101100110011110111110011101101010100101001010110100111001100110
11000001100100110001100101010111000011111111101001000000011001100101100101011010101101100110000110010010011011100001111011010101
01011001010001010011111111011111011100101111000001011011010010010011001100000101100011100011011110111111100111100011101101010100
10100100000101010101000011100001001010001001110011000110010111001000110101111000100101001001001010011011100111001100101010111001
11100101111111110011010110100011111110000001011001010011101010111110100011110010010110110011110101100110110010111011001011110010
11101010100100011011111101010100011001111110000100001101000101101011111010010010011010010100110010100001111100001100000111101110
01101100001111110101101111111000001010101010111101101010111001001101100001101111000100110010111111101011001101011101110101111000
10000100101010111110110001100010100111001100010110011111101101001000101011001111001001111110111011010000111000000000001111101110
11100011101000010011001111111001111010110011000110110111001011000110001100000011011010110101010111111100001010011101000111110011
01011000001110001001010001111101111000110111100111110010000101010011010011111111000000100100111111001001011010101100101011111110
01101001000111010111000110101000010100010111010111100001001110010101100011101010111010100011010111010100011000110011101001001011
11110111001000010100011111001111011010110111010011011011101000101101110101101011010101111110010111101000111000011110010011000110
01111111001010001000100010011101100001110100000000111001101111011011011010101011101111011110100110011111100011111111010010001011
11100100110111100000100000101001111110110110011101100110011100010110010010000101000110101010110101100011101000100000011011011110
11000110010010110110000000010001000001011001001110001101111110110111011111011101101100001111101000010110011010010111110110001101
10010011000000100010011111000010000100100110100100111011100111110010101110101100100011111000000001101001011000101001110100110110
11010100100100001100010101110100010010110000001000011100010011101111110110011001011001001111101100001000110001000100001110000000
10001011010100100000000111000101001011101000010111100111011010001100010101010010011100101000011100010010111100100011000000110010
11000001111010010111001011000101101001010000100001110100110000001011111111010000010101110111111110101000110110101101000000011110
01000100010011001001101010011000001100001100110001101001011111100111001001001000000010001110100100000010100111111011111010101111
01000111101101011101101100100101011001111101001110110001011110010101111100000110110100100100101011110010011000000001101101110001
10111110101001010101111100001101001110110010101010010110010010000110000000110000011100010001101011101000101010001000011100010101
11100110011010010111000010010101001100110010000110010101010001001001010010001000000110101011110001111111111100100001010100101111
01000101001011010101111110111101110111011010010110100000001001001100110101110011100101100110101100110010110011110100110011110110
11110001011011000100100101010010001110101011101100011000010001100101100100001010011011000111000111110010100000001000111110010111
11100101000010010100101100000100001000001011011101001111100000101101110001111000011000101100111000100010101011011000010001111100
00111010000000000110000011100110110101011000101000011101010101111011001001010010010000001001111001001110100000111101100101111000
00000100111010010010111000100111100001111010101101011010000001011010101111000101100111010001111010010000010011101110010000101010
01011101011101101001000000110110000101001100111111110011110011000110001000011000101000101011110100000111001011000011101010010111
00100001011010110110000001100110100011001001000001010110110011000001001001101101110110110011001000000111000110011000111011010001
01000000001010000100101000000101100011101110000101001100000000110101010011001101001000010111111001010110011111001001010000001111
01111001011101110001011010010100010101101111101000110100111111110001001111010110001110100011010000000111000110110111101000100111
11101000111110001101001110100111101101010000011011000001100111000100110001111001000010110111100010100101010110111111001010111100
00000111111101011101110110001111011010100001101101111010000001011110111101110111001111100100101101101010100010111100001010111000
11100100001101100001010100001100011100101001011110110001010100110000110000100100100001111111101100101010001101011000001011101111
10110001100110011101010111001111110111100000110100101000001101011101111100111100001001110100111100100000000010010100011111011100
11101001001010000010110110100101010010111010100001011000110011101101001011100110101001010001010110100111000011110110010110000001
00001010100010001111101010011010100011010110111100110101000111111000000001001101000001001011011001010111001110011111111110101000
01010111101110011100100001100100110000110001010111110011111010011001001101010100011010111101001110010110110111011000001111101001
11110010111110000101110000010000100001101100100000100010001101101010000010010110100001100011010111011111001011010010011011011001
11111110100001010011010111011010011000100001000001000011010100000110000010010110111001101001000100101001100010100111011110010110
00010000000101100011000100100001100001001001011010010110000100001010110011001101100100000001111010001111001111011001111011011000
00000100111010001101110101010010101100001001100001011110011010001110111100110110011011111100001011001011000001101000011011001011
00100110010111111101101110011101000100110011011000010001011001010111000000001001111110111111110001101110000100000111011000111101
10011011100000100110110101111110010011011001000011111100110111111011101100011011011011000001011010100000010101110001000111000101
10010010111011001101101100100110111011011101001101011000001010111101111111011011011001110001000000000011001111011001100010101010
10111000101000111001001111101001110110111011100011101001001001100000001010001010000110000111011101000110110001001011011010111010
00000101100100010010101111010111011011000011001000000110110000000111010110110010001100111101110110100010110110100000000001110100
11001111000001111011111110101111101100110000011001000100000110111010011110010100111111110110000111010101010011001111110110010110
00001100111001110001110110100001100110000010000100010000010100010100000011110001100110011010000100100101110000001011001000111100
00100110101001010011010110001011100100011000001111011100001101101001000111110001000001011001100011011100110100100111001110011011
01100101001010010111101001001101101110010000100101000001010100011111110000001000010101101111101101111010101110011110011000011010
10001010111010000001101001000101111111000000001110010110101100111111000001000011100101001010000000010000111010001011001111001001
11000101010100001011011000100011111001001000000101000101101000001111110011000000010100010011100101110110011001111010011011011010
11100100101101010110110100010011011010011011111010010110110011101000010110100011010101100101110011111100111101111010010011010000
00000101011000100011001000001111101011101001101000011000100110100001001011101001111001101011111100101010001011011110100001011100
00011100000100111111110100101000100101011011010001110100101110101010001010001011011111111101000000111010010101101101101110100111
00000101010011001111010100001101001100000100100000110111101110011010101101110000000101101001111101010000000111111001010100000000
00110111111001111111100110000111011011100000010001100100101001110101000000010010111010000110110111010011111000000001001101100001
10011100000100011110110011000111001010001001000000001010110010001010110100001000001111000100001111101011000101100010001010000001
00110110110010101111111100110111110011110010000000101010010010010000001111001110010000100101111000100111110111001000110001111110
01100100001101100110101011011101110000010111011111100101010100110111110101110101001101111010000000101001110011011111000011110100
00110010011000000100101011111110011101010111000101110010001010101011111101011101111000011101101011111010111000000100000111000100
11110001010001110001011011001101001101100110000010011011101001000011010111000001010010011101110100100000100001001111001111000001
11000001000010101101100010100101101011011100011101000011110000000001111101111111011101111111100010111100000100000100010001001000
01111111100110001011101010011001111100101111110101000001101111111010010010001001111001000011101100100110101110001010111111001010
10010000110001001111100000001110110111000011000111101011011010111101001011000111100111001100001100101001000111111000111001110000
10001111111100001011111000001110000010001100100110100010110010110110011011101100001111011011001001001111111110101001111010011001
10000001101101110000110111000111001010100001011101110010011010000101110110000010010100110110100011111010010000011000100001011000
00111001110101100001110010001111101010101011011000100100000111011001111010111111101111100010010011000011001010011111101010010110
01100110000110001110110010111011000010100100101110101110010110011010101111010100101100111000001011100001001001111110111011000111
10100110000111100000010010011011000100110010000100100100001110010011100110100101001101001111110001111101100100100110100100010010
11001001101101000000011010111111100001111010110100111000101010000110110001110110000011000100101110101110101011010111000110001001
10110000010010100000010001111110010011100111100011101010100111111010010010010111111010101101101010000010010011111001010000000001
11010100110011000011110111110110100000000110000100100011101110110101111011010110101110110100110001010000101001011111010100001001
01000110010000100101001110110101110100101110100000010001010100110110100100000111001110011011001010001001011101110010011100011101
11111011101011101001011101000100011111001110010111000100001001101000010100010010110111100110011111100101000011011011011111011101
11111100011100000110100010111110000010100011111101001111001000000011110110101000111001011010001000001010110101000001100001011001
00011110000010110110001110011101010100110111011011100010010000111101001110100111001010000001111010001101110110010100010101100100
11000101100111001010010110010011111010101011011011100010011010110000011110101000010111110110011101100110101011101000001011111111
00010010010111100000000010001011100000000110101001101100100111011000101011000101100001001001101101011110000110110111011000001001
00000111000011011110100000000001100100101010000100101100100000110100110101111000111100111110111100010010110011010101000010011010
00010110110001011000000101110101111001101100010101011111110011100011001010101001010110010010110011100001100101001111100101110111
10110110110011000101110101010001101101000111010110110110000010010000111011011100110001101111000110000001100100001000110011001010
00100010100110000110110111100011111010010110111110100111001000100100111010100011111110111100010010010100111000111011010011111100
11101111000001000000101111110101011100011110011100100011011101010111000000100110011110110110111100111110010001100111000111010000
11011111001110101100100011001101001101110111110001000101011001010001011110001010010011011001101001001010100000001101101000111100
01110011001000110000110111111011001011100010111101011000000100111101011001110100110010101111101101000111001000100011101001000011
01110001011010111011010000101000100001011011111010110101011010011000001011000001110110001011111010101111000011101110111011111100
01100001001011011000110011010001101010100010101010000010100100000100010000111100110110010110010101101111101100000010000001110010
10110100000000010110011110110000001100000011010110000101001100001101110110110001010000101101010000000110101001100010010111100001
11011111111011110111111101001010011011000001010110111110000110111110110001000010110111110100001111100000100100001000000001011000
01100111101110100100000000001000110101110110000100111001011011111100100001101101010000000110000011000010101110010001101011100011
00011101001011110011011111011111010000011011011001000111011101010111110101101010000000111111100000011111000011001100100000111101
10010001100110011001010101111001110101101110011011010110111000110100000011101011110110100010010110100101011010101001111101110001
11110001101110011110110100101010100000110100110101100010101010001100101001001010001011011110101111111000111100010000010011000101
00010001100100100111110001100000111101010100100111101001111111111001111101001011000001011111000101011100001110000110000101001110
10111001010110111111010001111100001111010101011000010111011101010010101001001100010100100010111110010010010111110110100111110110
10111000010110101100000011001110000101010110101000010101100111110011011011111101011111011001001010101101011101100111101110000011
01111001110011100101010010001010000100001000011000000000110100011110010001111100100110000001000101000100001111111111111100110001
11101011010000100001011011101000111111010011111011100001011101010010000110000000110110000001101100100101000000000111001101011001
00100111001001111101111001100000001111011100101011010011001011100100001101011110001101010100101000111001101101001100011001100111
10011010101110101110111001100111100011011110101111000011000100100111110000110011001010100011010011000010111101111100101101000110
10000011010101111011001111010100011011010010000001101101010001011111001010100000101010100010000111000111101010011011110001111101
00100110110110110000010010010000101100011111101000001011111000101010010100111110111110101010110011100111010100001000100101000010
01101010101011101001000110000101101110000001001100011101111010011100110001100000100111110101000001010110101110111101011011110001
00010101110101010011010101101001011110000111010110110000101110000000000011110100100111000011001100010111001111101011011000010010
11001100101111101111000011101100100001010000110110100001100110100001010001101011110111000000011000010110000010011111000111100100
11001001110000100001100101110111011010101010110001000110010000000000000000110010011100110100111111110010111111001001110000011101
01010001000111110001101110000001100011010010000101000001101111010111000000101110100000110110110100111110111010001000001000111011
00101100100101110101101010100101110100011111000001000111000111000101100000010010010011111011100110010111111011110110000000111010
00110111000011011010100010101101001100110010111111100110100011001111010101101100011110011101001001101111110110010100000100001000
11111011111001100010011011000111110101101001101011110000100110011011011010110001111110001011000001100100000110100011111101010011
01001000000110010111010110011000101101001111011000100011010010010000110010001010110100110111101011111001001101110100111011111000
10010101001110010101110100110011111110110001010101000001101111001001100001001100010000101010100101000100001001010101100011100111
10101011110111111000110111011011011010101101001111111110001010011000111101110100100101101100101000101101010100100100100110000101
00010010001101000010110001111010100011110101100010010111010110110011111111110101000011001000000010011011101110101110010100000011
01100100110000010110010111101001001110100110110000100010111010011100110000111110101101010100001110100011100110101010111010110011
01000100100011010110010101001011011011101110100010000111001110100111010000001110010110111111000010011111111010110010011111001101
00011010011000001001111011011100100011101001011000010011010010111001001101001000100010101111010010111010100110001110100101000011
01000100010100110100110110000111101010100000101111011110110000000101111000110110011100000000101110101000111011100000010000111110
11110001110111101001011010100000110101001100010011100001101111111110100111101011100000101011000101010100000110111011101101111010
11010011110110110001101010000101110011110010101100010000001110011111111010011100101010001110100010110111000111001010101011101010
00101010100111000100000011010101000110111110111101011000101101110010101110101111010100010001010011010000010100001011110111110000
10101111110111010011011001010000000000111010101011111011110011010001101001100101100011010000010110010110110111111010000110000001
00111110011011100110101010001111101110001001100000000100010100110111010010001101011011011001101010001011100010110110000110001000
11100000101010000110111000110011100010011101100000111011011011000000100011001001000001110011110000010010001111110011101000001100
10000101111010111110101110001111111010010001001001001010111010011111110000011111011000111110101100010010100111110111001010001100
01110101010110000100101011010111010000011011100100100001000100110110100000101000011011111010111010101110111101110111000111001100
00111100100101110001100101100111011001100101011010110100101011101001110010110010010101101000101010100100011000001100101011110000
00101001000001010100110010000000001100001010011000000110011110000010111110010101100101011010001001101111101010111111010110000001
11111111111110111011100111100110011110000100011100101100001001111000110000010010100001011100110100010101110111000000010111010001
00110110011000111000100010010110011101010111101000100100101101110011001110011110111011111100011001001000111010000100011101010101
01000001110011111001100110010111111111011101010001100001111001000101101101100011100101100110111000110010011111010111101001011000
10001101100010001011110110000110001001101100100111011100101010001100101000111110001100011101011101001111001001001000100011111000
