0111100011111111100110001010110100110111111001001110111000001111001000101010001001000000100101010101100100111010011011111011011001001000110101110111010101111100111011110101011101111101100111100111011010001011010110011010010110001110010010100011010100001100
0111010011000100100111011000010000110011001101111001110110100000101110101111100011010101101110010111001110110001100111000110011101111010110111011110010111010100111010010110101100010010011000011101111010100011101101001000110000111111010100010111000111101011
0111111011111110100000111011101001110101101000010011110111110000101100111100111001001010110101010110110100111010000101111011011101010110100000011101011011011100110110010101100000000011001000101010011000101111101101001010111011100001011100100010011101111100
0101001101100011011000110110000111110001010001100110101011111111101010110001011100011001110000111101110101001100101011101010000000101110110000100101010000001011110101100000000011011101101100000011011100011001111110110111010100000000010001001011001001001100
0011100000111111010100101011000111110101101011010110110111110111000000111001100000011001101001011110110000110100111101101000001000110101101001110100000010000110110110011010010101001100001010100110011000000011111010110011110111001101010010001000111001111100
0111111000001100010100100100010100010000010110100011110101000110100100100010000100110110101110011110000111101001011010010100110100001111010111111010000001000001011000001111101011111011011111001001001110111001001111100000001001101101101000111100011001111101
0000101011101101110100110111111100010111011101000010000001111101000110110100011101101101000100011011000011011000111011011101001001001001011001100001000000100001010011110101010001010111001010011000110100011111110011001000011101000000111010001001111001001100
0101010011100100001001011010011110000110111010110110101101100000101110111010001000000100010101110110101100100110110010111111010110010000101101101110011011101101000010000100101110110100111011100100010010101110101111110010111011110110110110100011010011001011
1101100111010111011010000110000110110001100011111000101101101110111101010100001110000011100100000111000000001011001011011011111011010010010110101010000101101011110110110101010100011000001111100101010010011100000011001100110101001100001100110101111110101011
1101001011011000101110111000110101000100110001010000011110111111101010011010001011100001100110100010111100001110111110001101010001100001001110110001110011100010100011110110011010100110100110110010110001011001111010000111010010010000110010101101011101001110
0001100001011000111001100000101100000110100101110010011011011000010000010010101100110000111111111110110111011110001011100100000111101100001100111011110111110101000101110101010110010101010011000100011000000011101010101000011100101001111111101000001110101100
1011110111100100000001111001011000110000111111110110100010000110000000101000101110011011101111011001000111101101000000000110110100110101011011001000010011011000101010001010001001011010001011101110001001100101000001111111111110011101000101000011100001111101
1100001111101110011001111010111100110001000010110001010111010110000010101000011111100101111100100000101110100001100001100100010100100111000110111000111011001111110010100110111010100100001010010001010011101100010011111010100110101010110101100111111110111000
0101110010011011101010101001010101110100101100100001001110110110111000101001011001000010100101100000001110101001010100111101110100010111000111101001011010010000111010000111000011110010100101101101010011011011011010110001111010101011110011000010011001110010
0101100000111101101010001001001001000100011001000000010111110011001001011000001010100011111011100010111100000010101101010010010100000011101000011110011010010010110001010110000010000110100000100010110001000100110011100011111110101101010011101101001110111110
1000010100001110011001110000010100010110100011011110010101010000001011101100110100001001110110010010110010001011001001010111111110111001001101011011000011001000110010101111101101011000110001001000010010110111011111111010001011110111101110110101000110111011
0000011101000110110011110011101010111001110000000100000000001010100110010111100111100111001000110000010110000101011010010000001110100100000011001111100001101011001111110110101001111010011111111010000100110101010001011111011100001010110000010110000111001011
1111011101000110111010010011101110001111000000101110000101001000110111010111100001010101111000110101000110101111100111000000000110011000010101111110110101101001100010100000101100110011010111010000101100101111000111001101101100101011001101010110000111001010
1010101100100111110100100100110100001011100011001111100001111010101011010100100110001001011110010011011010111010011101000000000011011001111100110001100000000100111001001101100111101111001111010011001110100101110110100111000101011000001011010100101010001101
0011101001010100100101011000100110100101011001101100111100101000110110110010101101010100000101000001111111101011001000000111110011110010010101111010010111011000111110110111111011110101111110100011110010001011000010011100110010111101001010000010011000101111
0100011001000010111111011110101001101110111100000111001001000000100111010010010100101110010001000011000101111011001010100001000111011010000101101110100000100101010111011010110101011011011111000001010010101100101011001000001101000011100101100101001111001111
0100101110110001111110000111111001101010010100000101001001110001010001101100011111001011111001000100010000010111101000011101111111111010100000101000100010111100110111011110001101111100100011111111000011001100111110111010101101110110001011101000010100011011
0001010101101011101111111001010101000111101101111100010000111101101011000011011000000110110001001110011110011000011010011001001101011101100101100001110011100001000010100000111010010111101010000100111100000001001110100000011111100011101000001011010111101000
0010000110111111100101000110101000110011111011101011110101010000000000100100110100001001100011010111010110100101010000111111011101011010001101011110000001111100000101011101001101110100000001101001111010011110000111111000110011100110010110110000100010111011
0101111011011000101010100100010100000100101001010100101110010111001000011110011011101111000101000000000100011011111010111001110101011010101110111000000011101110010010011111100100010010101000111101001111100111110100100001010011111011111010100101101000111100
1101101001101101100001100111110001000111101110010011110001111101000010000000010111100111010100011111100001011000101110101011101111101000111000111101001010001001000101110000010000001011100000011001011110011101101001101010011101110101011011001100110001101100
1010110011000001000001001101100111001010011111011101100000101000111010011101011000011000111100100110011110000001010100001110111110111010100001001001010101100100101101110000001001000101010000010111100100010110010100011110011100011101000101110011100101101011
0100100110110101111000100011011111111010111111010101000110110100000100100101111100111111000010001010100100010110111110101111001001100101000011010100011010000011000101001100000000000101100000011111111100010000011100111010000011010100000111000001110101010110
0101010111011010001111110001010100100100000001000010011111110101001011011110011100101011010110001000101000001110011010101101011101101100000010101000000010111011010000010111100111110111100100111100000101100100111111100011110000011100110001100000001011100100
0110001100001000110001110100001110100000010001011010110111111001110011100010100111010110001111111110110111111100001011100110001010101100011110110110001111011101000011101000110011101111110111100111101100010011000000101011000100001101100000001101001011001111
1010011001111101101110011011000010011011011111000101111101001001001111101001111010110000001010010001110100011111011001011011111011001100110010001011111011001000010111101101001110001101000111101101011001000000110011101100000100110000010110010000001011101111
0101010010001010101011110110110100001010111110111000100100101010000110101110000110101111110111100011001010110101111011000111110101101011001111111110010101101100000000011111111110111110111001011100101011111110011100110100010100110111011110100101101111111010
1011101101001110101111111010101100001001000001100100010001001011111011000111101011000010101101111011001110001111001010010000010010110100000110001011111101001011101110110011111010100110011101000101000011101100010001000100010100111010001101101111000110000011
1100101011101100010101100101011101000111010001011000001111011101000011010110011001001011100100100111001111001100011011000011011001101010011101001001000011111101010111100110011111010111101000001000110110010111010010110100010000000100010110000001000011101110
0101111100101110000000011100101010110010011111111111111101010000010001101100110101000001000111110010001010110101010001110111111101101000001101111110000001100000111110111110111110111001111001101000010010111111001110001010011001100111111010110100000011111010
0011010101011110000111000000101000010101111000100000101110011000110110010111111010000100100001010110000101110001100111111101011111010000110100111101100011111000101111110101110100100001101100101000110111001111000111011110111101100011011000100010101100011110
0101000101001000100011000110010001001011110010010110001100000010100001010110100000100111010000100001100001100001110010110011100111001010010100101110100110101101000101111010010111011101010111010010010110100101101010000010011100100110000111101101101110001011
1010100000110011100111101000001010011000110101111101110110101001110011101000100011011001001010101001111110100010011101010110000010000101001101000011111111001010101001101001011010010101110100000110000000011001010000010011011110011101010001011011000100100111
0101100000101011110000000111111011010110111100101010100110111111010000100000010111001001010110000010010001010100110010111011001000101010111001110101100110111101010100010100000100000101100001110110101110010111101000010010000011000100110111011101110000110101
0011000101001101011001111001001110111101011001010010010011111101100110001111011011000100010111110110110111011000110001111001001001101101100101010001100001100111000011110101100000000111100000001100001100000111010001101111011111101011110001000001110111001100
1011110100010010100111001000100011101001110110100001110010001000111011110001100001110100111001111110010101100100000101110010101100000001111011001111111100010110101101110001001010001001011010100110111001110001000000111101101111100001010110010010110110010011
1010111111110101010000010101101111001010001111111001001010111011011010111101111010011101011111110101111111000100010100101111101110111010010001001001111010000010101100110000001100000011110000010011110101011110000101011110011100010100000011010011100100100011
0011010000000110100101000111101010011010111001011110110110101100111100101101010011001101100011100110000111110000100111110111101101101000110000111110110100000110001001011010001100000001111100101101110111101111111101110000010111110111001000011001111001111110
1100010111001100100100111111000110001110100111101110011101000110100011100110011101100010100111101111101000000010111010101011010001111100011001001111001010110001011011101100101111011011001101101000010110101101010110100010010001110010010110100000001111101110
1010110001110011110110000111100101111000100111010001111010011111100100011100101011111001001010011111111011011110110110011100100100100001010010110101110110001110101101110000000010101011001110010110101101000001110000000101111100011000110011111001111100010101
1100001100111111110000001011011110010110110110111111011101110000100000101110110110100101010111000111000010100110010001101110111111011010001001001000000001011001100010101100001100011010011001100100011110010110010111110010110111000100001110001100100000101010
0110010110011001001001100100111100010101111101011010111001010001100000101010100111010000010111000101010010100000111000011010000100000011110001100111110010110010001010001101000110010010110001110000011111000110111000110011101101110000111110011101100000111100
1000011111001010110101111111100100110011001011011111100001001000100100000111110011001110010010110101001110011011010010110010010111111010010101111010110001011001000000010101111100000011011111001101011110111111100111001100010101101011100110010101100011101011
1100011011011011011010110110110111100111001101011000001101010101110010011111011001101101000100000000101000000111110011011001111011101000001001011000000000110001110000010111010101010010100110010010010110001100111111010100011101011000110111010100000100100001
1101001011001110101011111111011010000101011000000000110101101100001110010110011010100110010111100000101100000011111011000111010101101010101101101111011101100101010110110101101011011011011101000000011011110000100000110100111110110111100110100110010011001011
0001101011110111001011101111110101100111001000100100101111110111101100011100011001101111000100010001001110000111110010111001110101010010101001011000000010111001100010010110100101100111001110111101010111001110110111011100110011011010111011100010000101011110
0011111011011101001001000101111011001010011101001000001110011011111010001001010010100110000110100100111101010100001110000001101001101001110101010001110010110000000101110011010111100001110001100010100000011000100010110111001100010010011010100011110100100111
0101000011011001011111011001110101101101000100000111001111011011111111001011011100100111011111000001110001001010001011010001001010001000110000101101100000101101010101111001100010001100100100100110000001010000101011000100000001100010000011100100110110000101
1100010000101010111100010110100101101111010001001110011111110101111001101111011001101000000100100100111010011000010101100000101011001011111100110001001110001000010101101101011101111100010001110011011100111111011110100011000001100001111011010100001011001110
1000010100101011011000000100100101110011110011101111001000000000011001101101110111101001100000011000100010010001000100100100111101111011101000110000001000100001101100001000010100101100110111010001000110111100011110111010001101000101001011111100100011110001
0010011001001101000001011011100110110000101101000011110010001111101111011101101000010100101011111110010110101010010101101000001111011101101011010011010011011011001011010000100000100110001100001101101000110011010001100111011111101001111101011010010101010110
1000010011000100010111100011010001101011000111010010000010001111101001011000101000110010011100101100111000100000111110000100010110000111110110000011011011000111011000001010011111111000111010000111000001110000011000001100100000011110100100111010000110100111
1010010001000101001100011001001010000000111001111010110000000101110100110101100000110111101010100100010011110001111011000000110100010011011011010100010111010100011010011010101000011110010111011000100110010011011001110111110011010100001111011000000101100010
1000111111000110111100011110001100100111100111011010100101001010110010101101111101010000011110111110001110000001010110101110011111111010001001001000010000001001101110110000011001110001101101000101011000000110010101111110011001110111000100100111100110111010
0000100010110101111101111001001011010100110100111001011011011111011101011101011100000010000101011100011001011101001000001000111010110111110010100001000011011010111011000101100011100010001000101011100001000010111110110111110100010001011001000111101000010110
1001001100111100110000111111010100100101001010100100101101111000110000011101111001101101011010011111001111011011101101100001110001010100110010100000111011101111001101100100000111101101001111111111001111011000010011001101001000111011111111111010011110110001
1011001101001100000100011011010010101101001000100100010110101011110111110011101001010101011001100101100100101000010111001111011100000001010010010101110111001110101011110001001111010000101000100010011000010011000001010101010010001011010110000010010101101110
0010000011100110110100010000100111000101100001011110000111111011110111110001011101000000001000111101110111101100001011000110001000001110110010100111001110010110100101110001010110011111001110000011110100110011100011001101000100001001010000001010111011101100
0101011011111111100111100010010101010100011000000000011110011101101110011110011111101110000111001011001100011100111010111001100001010101100001001001110010111011000011000110010000110111001110111011100101101001110000100111110010010000111011101011011001011100
1100101110110010110110100001011011001000110110110001001001010001011011001101011111111010110010101001111001000101101110011001111110001100011100001011101001101111110111000001111111101110011100100010010001000000101111011001100011010010110010111011100010000001
0111010101001110010111111110101110111101010110100010110111101010010101010011101100010101111010010111100111001001101011011110010101001110010111111110110101001101011010111010111000010010000111000101101000100001101111101000101100101111101000010101001011001011
0101110010101111010100111001000101110110001001001010100001100100011110100101011000001000011111001110010110011100111101111001001101110111100011110101100000000001011111010000110101100001101010001100101100000111000010101011110111100100110001010001101001110100
0010001001101011000011111000000010000101000011100010110100011010000010010011101011110100101111111110100110101010000101111001001100011101010101010111010111001101000011100001111011010101111101100001001100110011110001100101100011001101101000001001011101101010
1000011100000100110101100100101010001011010011001101000001001000110001110101110111001111101000111011011111111111000000010100100110001000110100001011100101111001000101101000101111100111010001011101101110101110001111101110000100100011101001100101100111010011
0101110111011000110111100110010011001110110100011110001100001111001000010110010100101101000100110111001000010100111010000010110001101010111100111010000101111000011100001110101110001011101011110111000010101111101110100000000101111100111011100101001011011000
1010100100111001011101101001100101111111000001010101010010011111111001101011011011011001010011011111111100011100101000111001001011000101100100100001101010001101000101110000000111100101000110110011000100011001110010000111011011000000110011001010110000010100
0100001111001010010101110100010101001110010101010010001101110111000000010110011110101100000110110100000111001000111010010111100001001000011101001101100010101001001001101101000100101011100000010010111110100111100100110101001001000000000011101000100011001100
1010110010110101000000110010001111111100110111110000111110100011010000100001101000011010001101011110001011011110010000000100110000100111110011010000010111000110111000100111101010000110101111101011000001111011000000010001110010010101011011001011001001110100
1100101011010010111111000011010111001110000100100000011110001001001111011110001010110101111010101100101000001110011000000010110110100011001110001011111111000111001000100011010011110010110110010111000001101000100000110111101000111000101111001010010100000001
1101110011010101101110110111001100011010111110000101111100010110101110101100110001111010111111000111001001010001110010110001111101011011100101001000011000111101000100001111101001100010010011111100010010100100011110110000110111111110111011110010100100011011
1101001110110010011110000101011001001111110010010011001100110001100001101110010101111111000100101010001001110111111010000110110011101010111100101110001101101000111100011111011100111010010001110111010010101000101110010001101100010100000011100101010110011101
1010101100000101000001001001101011111000010010100111110010001010110110110001100001111100101011111100111111111001000101110110000110111101110010010110111101001010101101110000001000010001010010000010001100111001000001111111001000101011001100011011110101010001
1100111011110011010101001101110001001111100110010101001010100101010111001000010100111010101010001011011001010100011010101101100010100011100000000000101000111011101110001100000000000011000110111110100101110100110000011111101001000000101111010001110010010001
0110100100101010001101010110100101010011001001111011100111011001110001110101111101010101000101100100110111111010011001110110001111101010011001001100000111101100110101111010010110011101000111100101110100000111000110101100001100001111000100000010000011101111
1000001101000011010001100101000111111111110110010000000001000110000111010111010110111111111100101000011110011101001111000100000111101111010010001001101000000011001000000001110011000011110100010010100101110100000101011101000100001000100101010011111110000001
1101111010011011100111011001000000111111101010100011101000010110111100001101110011001111010000000001101000010111000100111101100100010101100001001001111000110110110010010110111100100000001100011101010011001110111111011000110011111011011011000011100000011010
0010101011100100111100010110100110010000010001101110110011001010010111110111110100010000101100011100010011001101001101110110010000001010011101100111000001000001011001101110001011011111101001000010011110011101000100011111010001001100011000010100001101101100
1010001001000010010011110100101111000100110101010110100011111001000010110111001101100000011110111110010111011100101011100110010011011111011100010111010011001101010101101110100011011111011010001011101100100011000000001101001101000101100100010101001101001101
1001110110111010101011101100110000111011111110111001111000100110100100101100000001101111001010000010001001000111110110100100110100001110001101001000001000000000001100001110111101101010010111111001100011110110001110011010111001111110111111110000100010110011
0111111010111100000100111001011101110101001100111110111110000111110110010001011010010011010111000111100100110000101100111111011001010100100011110100011011001001011011010110000100010001100110100111010010000010110011010001110111111100110000010011011000001100
1000011110010011111000111111110110110100110000011100011001001000110100101001110010001001110001101001100110101011001100111011100010001100100100001100100000101110110101000001110111101010011110101110011011001001000010001101100000111001000011100000011101111011
1010100100101000010100011000010100000111100111111010010101110010101011111100010110001000110100100100000010001101011101001011011111111010001101001011001001111001110010101100001111110010010001100011011100101100010110110010010111100111001110010000100110101011
1010011100100100011001100111100011111111100111010011101001100000110111110101010110111100001000001101010111111001001001110100001111001000110000010000101101111101000110001111101101001011110011010001101111110111001110111100001001010101101101110100111111100101
0010011101100001011111110100101111101001010111010000100011110100111110011011001101111110001010101011010011111001011010000100001010001111011110010011111100010011010010001011110011111111110100011010101101100111000100100101000001000001101101011011111111010100
1011001100000000110100010111111101011010011001000011101001000010110101010100110100111110010010010101000111010001001000100110001011101010010111100110101100101101000111011110000101011001110101010101011010101110101111101100001001100110100100110101001010001011
1101111001000100010111110111011101110001111100111101100100000110100110110010101010010100011100100100000100100001111010010011010100011010000111101110010101110001110010011111111001010010011011001000000010111011100101011110100110010111011100000111000111110010
0010010101001000111111110010100111101101110101100100010011001111111111001011001110000011101110111000111010001000111000011100000000010101010100010001111111010111001011111011101011111110111010001110100101101001110000100101110100010001110101111010111111100101
0011010100101000100011110100111100010001100001000000000100001000000110010011010101100111101010111001011111101001010010000100010100101111010110111111010101111001000010101011101010111111111001001101001101110011011100101011010011100111101110010101001011101010
1010000000110010000011000011100010001100111111001000010100001000111011001011100000001000110001101111000101011100100001010011101110111011001100010110010111001010101101101000001010111100110001100011010110110010011110010011000110001110000000011100010100010011
1101010111001000001010100100111110001110100101010000001100111100000101011000011100100111000111110011101010011101110010000101110011101000111100101011101001111011001001101000100001101101101100010110101111100110111010001111011000110101101011101100001011001101
0100010011011100010111011000000011110100110101010110000111101101000110010110001010010100110110000110000001100100111111000011010101110110011110001100010111111101110110011110101000111010101100000100010011101011101000011110110000100011010100100110010110001011
1110100110110101010000000101010111101011111011111001101010010001010001100101110010111000110010101101110000000100010100100111101001111000011001000100101000000101101100010100000100000101010000010110110110011100000011011011000101000000001011010001110000000001
1100001010001110101000010101100011110110001001100011100101110000100100110100111110001101000011010101100101111111011001110001010111111010110001001100000100100101110111010101111100100000000011101001010010010111101011010100100101100010011110000110100110011010
0010101000111101000000111100100100111110111111001010011001110010011000100101110111001001100111011110010010111001011001111101011101011010100001110010000001111100010110001000101111011010111101111100011010010111011110011000011001010110111110110101000001110010
0010011101001110100101110111100110011111011110001011100001101010100101010111010011101101010001101000010111011011010111110011001011001100001001011110100000100001001000001001111101110011010001000001001110100111000100001110001000101111001001010111110011001010
0000101101110011110101100100111011000011000111111111110011111010101001110101010101101001001100011011011010011111011100000000101111001111110011110001001100010000101100001101100111001111010110011110101101000100011110010101001000000101001011011100101010110101
1001100001011101100110011010100010110001101010110100111000010111011111001111101000110010111011010001000000110101100100111101110101010101100001010011011001000110111010010101101110000110011011100100010010001010111100010101110011101011011110010011010101111010
0011001100101001101010011010101011101000111111100001100101100001001001110011100011010101111011111110110111101000001001110010010110000111001111010110011100010110100111111010101010011100001011100110001010100001101001101010100111101111100101111011011110110011
0000110010110101000100101011000111100101101001111100111110100101011100000000011010010000001111001101011001010100011010101101101001100111110001010000001011010110111111000110000100001110100100111010100100011110111000110101011001010100111011110101000000110101
0101010000001110001111011100110100010101111010000111011101001110100101010010010100101111010100011111100001111101101010000001011011001110010110111111000000100001010111001111110100011011101010001101011010111101101111001100111100100011100100100100001011011100
1010001000000101110100110111110110111010000101011111100000101001010110100001110001011100100100011101110111000110010001111010011100101001011001111110000001000001001001101001011101011111010011000010101100000110000101011011000101000101101100010100100001100111
1010110100100001010000101001000010110011110101111101100110100101001000111101110001001000111010100011111010000100010100110110111111111011101001010001011110010010101000110000011110010001011010110111110110000110110100011001001100010101001101010110100100100011
1110001000001011111000101001000011111110100110100001101000001110010001011001000111111110011001011000010001111101001010000001101110010000001110010011001100010011001111101001100101100100111011010000101100011000001111001110101101110100101011101011110111010011
0100101111011110110011000001010110001001100110000101011110100000100001011100001111110110011010101000101100100111101110000111110110100101000110001010111111001110101010101110011010100010011110100110011111100000011001110100100000111111111100100111011010011101
0100110111010110010111111001000100011001110011001000000111101100100010100111111101100101101100011000010110101011000000011010101100000101010110001011111001110111111111110100001101101110101111000111111010110000010101101111101100000110100000000011011111001011
0100010111111000100100000111110111001011001110000101011111000111100000101000011011100111100100100000001000010010110110010111110001101111101000111000101011100110001100101011001100101000000111011010100011100100100110011011100100111001011011100100010011010000
1110001001011110100111111010101100001011000111101101010001000011101101001111111111110101001101110010001110001011000100010100010111000101000110001011111111111110101010101010101111111110010101100111100001100000000011001100100110111011110100110110011111000011
1010100110110011000011000101010000001010111011001111111110111011111010111000011000100010001001001110101001000011101010011000111110101100100100100011101011110010111101110110011111110101001111111011010110011101000010110100101100011110001001101011001100100001
0010110000011101010110111111101101111101111011011001000010111100011000011101001101000010101111101001011010011101101000011100110001110101110110001001100011101010011010010110101011000010110000111111001101110011011000100111111100001001101111101010001011110110
0100110000010001101110111001010101011100010100100000110110000111001110011011001001011011101110000010001100101001101010001001010000010101101010001100110011100111110010010111111001000010101000011111100001110011111000000111110010111011101001101011110110010010
1101010001001100100100111011010010001101101100000000110110101110001110010011101010010010111011010101101101111110100011011011010101010111101011010011010111000010011010110111110001110010100010101111011001110010110001000101110010011111010100000110000111000010
1011101000110000000001110000010011101000011010100000110110110111100110101001101010010011101011101011011111100010110100101100110100100111110011011000010111000010101000100110000010000110011111111010101001111011110000110111110111000101001101001011100100110010
1011100100110001111000000110101011111010111010100101101000000110010000100001100111011000101011010100010001100011100100100110100100000011100001110010101100001110111100011011010100101000011111110011110001001110011101011000101000110100011011111010100000110001
1101001011010010001010011001011000000101001000110000111100000101001110011011101000010011010011100010100101100100101000011111110000110010000111100110011111111011110010010010011001011000101110101000110011000011110001110001111110110110111110100011010110001101
1010101100100111011100010010100001100110001001010110100011110101011011110001010001010101110111010110110011001000001101111001001111010100000001110101101010001111010001010101010001110101101000000111110100010010110001011111010111001000110011011010110000101100
1001001101101101111100100111010000100100000001000100101001000110000101011100011111101100110010000111000100101010001111011000111011101111000010001100011001111111111101111101011101001011101010110100010010101110010101000011000000101000101110010001111011111001
1000000100001101111001011100011100010011110111111111011101010000100011101100010100101001010100110100100010000111010101101100011111111000001101001010001001011001111000101000011110010110111101010000011110010110010111011010001111001110011110010101100000111011
0110110001010100011111100101010001010010101100111001011111100010010011100011101101010011100111000110000100000100101101011111110101100010111011101110010001010011110110011110001001010010000100001000000010010011001101110110101010111010001100000111000000101011
0101011110011110101011000000111000101101101000101000001111010111101000001110010101000110000111000000101000000011001110101011110101100010101110101011001110101000100110011111101110000100000111111000110010110111111010110010110010110111011010100100000010011011
1010111000001000100010101010101100101011000101101100011000001010111001001111111110000100001001111000011110100001100010000000001110110001000110010011110101111010001110111111111010111110011011000101100000101001011110100000010010000110000000010011001111000011
0111000001100001101101000011011100110010011111111010000110010001011000011011000010110010100101100100111011011100111010100111000110101011100110111110010111011000010011101110000011000111010001110000110110010001010000101110001110001100000110010100000111000100
0010101000011101001100001101000010011000100100010011110011011101111100100000100110000110110000010110000110100100101110011100010100101010101011010100111010110001010110010111000001000000001000111000000010101001101001011111001001110011010101101111010000000000
0101001011110001101100011011010011110100111000000111111111010101000011001000000010110010110001000000100101110000100111000010111010000100100001010100011010010101100111000001010001011010100010110111111011010000100001110101111111110010010011101010010000011100
