00000001100110010110010000100010101001001101110111000000111011001000101011101101100101100010011011010010001100010011110011011000
11110101110010101001110001011101011010100001011111001000000000101110010101110110100110000010001111000000100111110011001000110101
01101100000100000111000100100110101101011110101000010011010001100101101010001010011010111101110010100110011100011101110100101110
10111111111101100101001011001001101110101010000001111000000011010111010010110000100110000010101100000111000000001011011010010101
10101100001101100011010011110000111001100100100000110000001100001010011011101110110110100010000010101101001011001110110100101010
01100101000101011000101000100011001100001111101110010111111000010110110010101100100111011011100101110001101001110111000000111000
00110110010010001111110011000110111000000101010111110001001011011001100101011101111011011110000001111010010110010000101110011011
00000000100110011110111101011101101111011101011100000110001010001110111000011011010001101101101010011010001011101000010111010000
11000011110111000000010110111001010000100101001011111000101100111010010111110100111111000000001111001001000011111001001000010001
11110011011110001101101010101011110100010101100111111001111001110101010101000111011000001010000110001100000010110101001011100101
10111011000111100010011101010010011001100100100000100110000110111011001010010110010110011000110010101111001000101000110110000101
10101000011001100001010110011010001101001000101010111000000110011000011011110100100111000000010010101101000011111110110000110011
10101111010010110000011111001111111110110001011101000111000110010111011100000010100010101000101000111100100111110101001011011000
11101111100110111011000101010011111100000101010001110001111111110110100110101000010010010010000111110101110011010101000111110010
10111000100011011110101100001001101101101010110111100110101000111111000101010111111101000000010001011000100111011000001100010000
10011010100001100010011101110010000111110100110010111011010100010011001010101111100001011000000010101111011100101110011111000111
11100010011001101111111111010111100011101011110101000100001110111000110001100000110101000101100001011110010110110011010011011101
00011110101010011110110000011100010000110100110110001110101110101110101101000111011001111111010110001000010111000100010111100000
00010001011011110100111010011011100000010000001001111110011100000000001001110010010101011001001001000010100100000010011111110111
11001110010000000011111100001010110101001011100100001100111101111110111101110110110010101111000100011101110001110111000110100111
10000000110001101100111010001111100111001100100011101000110100011101010001110000101100001011111100000110100011011111001000111000
01000001001110011001101101101101110111011010001101111001100100010101111101001111101100011011010100011000100011011000100001110100
00111110011111011010001011011101110001010001001101100000100110010111111110100001101111011011101000101001111101010111100010001000
01110011010110011101100010110011101000010101000111001001011111110111000111101010111011101111100101110110110001010001001101011001
11101001010111000001101000000110101001111001010100100001011111000111001010000100100011100001000010110110001101001111001001001011
00010110100000000011110111100101011010110111101111010110001010000100110100111111011101011100101011111000110001101100000011100000
10111011100010001100110101010011100010100011110111100101101011010100010011100010010001010111010000010111010000110101010110001101
01101010000101101000001001111010010001110111110011011000110011001010101111111101100011000110010011011001001111101011011110100111
11110010111010001111110111000101101100101010101110111110000000100100111000001111011101011101101001011110110110000100010100011000
11000111010111010010011011011001010010100000011011111001100011011000011101110100101111100110101010001000110010101011101011110101
00100011001110101100110100010100111101110110011011010000011100001100100010111000001010001110101000001010000000010100111001011100
10011111111010010110001010101111110000010101111110001101001010110111001101100011011011001110101000110001110111110110000001001100
00011001100010001101000000110110001001111111010011010011010101101101010011001001001001011001011111011111011110100001110000010011
00011000000001100000111001110000010110100100100010101110100100111010011111011101001010011111010111001001000100101110111100100001
11111000100111001001110100011100001000011000100100101011101011000110001010001001100111011011000111100111011100000100110110011101
11111111100111011000000100011011001101110010111100000011000100100110100010101001111111110010100011111100111101010110010001100111
00000000010100001110110000110011000111011101100000111100100001001001101111111101100100011101011010110010010111101110110000001010
10101011011001110001101011001100010100110001001011101100000111110011011111000101101011110101011101111001100100100111001110010001
11000011001000010110111101110010011010100111010110110111101000100010111101110111100000110110001011111000011100110100010101001100
11111010100010001111001101000010110110011000001111101110101011100101101000010111100110111011100010011101001011110101001001011000
10101001111101011010101011010001000111101011111000000011011100101000010010110101101101110011111110100111101111001101010001110011
10010111010100101001111100110111011111111010011001010110010100011100110110111001011101001111010110110010101001001110110001000101
11101011000100100001110111101010001100110110001111110001010011010011001000000010100110000100010111110111100000101101111100110101
01000110001101000000111001110111001001101101111010011001101100001100010111100101001110111011011100111010011110110011000001101110
10001101100100010010010101010011001111001101010100000010101010001101100010111111100100011000010010011111011111111111110000000100
11011110111100110011001000111110111001010111101100110111011000100011100110000010011000111101111011101001011001000100000111001100
01010101101111000101001000000000101101101100010000100010010111001101000010101010110110000010000011101111001100010011111001111100
01101011111110010000001011110101011011010110111110000000111100101000011110010111001111111010001110001101011000000100001101100110
11100010100000010111001100100101011011100111011110010110011000100010110000001010010111100110010010111001011001011100000001111100
10011001000100011111111010110010101011000011010100101100100011100000111001101101011011000011000100001101111010111000010111001001
10111111001100110110100101011100001010110011111100001111111000100111010100011010111010110100000101111000110000001000000101000111
01100100000011000010110101110010001100001100100100001110000101001000101000111100100100010110000011010011111111111100010010100011
11110111100110000011000111100011001101101010101101100001011010100011000010101010111110010110000111111111011100000011111110000001
11101100011011110001001110001110101001011011111001000101010101000101001011101000010111100001010000101101100000111111101001111011
10000001110001000001111010001010011110000101101010111110000110011000010111110100100111010100001011100101100110101000011011111001
01101001110011110101000110011111011111100011010011111000011111010101010111110010010010100010111101000011101011101011101001110111
01111000011111100000001010110100000101111110100000111101100101110000001111001110011010001001000100001001001011101111100100110111
00111110111010110110110101001110111010010001011011101100001110111110001100000011011001111101000101111010100001110000010111110011
01111011110001100011011001111101000001110110010001100100000011100110000110010100001100111000001101111011011011001101100100100000
00111010011001100010011111011100011100110100111010111100000110111001001100010110101000101000001011101100000000001100100101010111
10000000011000001111101000100111111110011111100101011001101111100101111001001011011001001111111100111000110101001101100001101010
10011110010111000000001011011000010000110011100010100101110100110010011110110100100110001001101100000000101101100111101110010011
10010100110111101010000010000001100010100101100000111001101101100101011110101001110110100111000000111100100100111011110010101000
10011010010000100000011011101110010011110100101010011101110101111010011111010110001010000001010100001111001000111010101100010111
01110101110001001111101000100100100111011011111100111101111011110000101000111010100111111111010001011000101011111000100001011010
00000000001000000101000000100000101101101110000110011110011110101010101010001110110011011101010011100101010100001100010100101110
11100000110001110010001011101010101000001110100001011111101100001010010001100000100000100001010000001101001000011011100100011110
00100111100000001101100010011011000100010010100101001001010101110110010001100101100111011111101101010101110000010011101010000010
01010011010010011111101001101111110101011101000011011001001001111011000001101101001010111011110100000100010001001011101101100001
00010000100000110100111001010110111011011001110001011111100001101000101001011111010000101100011010011010100110010010010111111010
11111111001110010001010101010111011001101101011000100110111100100110001010011010011111110110000111101011011001001100110001100010
00111011111000101111100010101000010111001000100011100001110011110101110101001011011010110110101101011010101110001111000110000100
11101000010111110000010010101011101101010100001010111111100110011000001001110100100101000001011000100100001010111110111011011100
01000010100010011110010110101001011110010111110111100111011110011010110100110011110100110000001111111100001011010100000011011000
11001101011010001101101010001101110110010001011101001100100001010101011101010001011000001011110100000010110001010001001000111100
01011000000001001100001000110010100100011100000100011111011111100011101010001010111011011101110010100110011101010111011100101100
01101000001100011111000100010110101101001100111100000011111011000101100010101010010001000110110011110110011001010001111000101010
00110011010010110000111111111011011100110111010110111110001110110010111100100111110011110100101011111001111001111100000111001000
10100011111111100001011010111010110100010101100011111101111111110111001111000011001010001011101101000101000001111111101010101000
00010110101110011011110100011101001100100001011100001010001100101100110100010111011100111101101001101000100111010100010011111010
01000000110110100010010011000111100101110110111101010010000000011001101101000001100011110011000111110011000110110001110010001111
11100010010011001101010011000000111001111011101110100110001011111001101000111010101100001000100000111010011111110110010110110000
00000110011010101000100011011001000010000001110010111110010010011001010101111101001100011100001010011100100111111000000011000101
01011101001110000110000000110110000001001100101000000001111001001101001011111111010010011110000110000111010110010011111100101101
00111010000100000010110110111001011001100110100110100110000010001110111110110111110101111100010011111001111100001010010011000000
01000111000010001101101010000101000110011110010111101001010011010101110101011011000100011111101111010000110111110000000110011010
00100101101101101000111011011101010110001001001001101010111100011001100010110001101110001101101100000100100110101111001000110111
01011010110110111110010111011001011011100110110010101010010011000100111001010011100111000001101001111010100001110010101101100000
11111100111111110100011100100001110100001011000000000011010000001101100001101101010001100001110110100110011001100111110110100111
00110001011010110110101001101001000000111100011111001000101011101010001001100001100111100110010110110010001110010001001111000011
01101100000110001110011000100111100001001100100000001011111010100111100011101101011100011011100000001111001111011111110000001000
01100111111111010011011011101101111000110101001111111100101100110000010111110010011110100011101100101001111001110110000101101100
01000100011100110010000100011111001001110111011101011001011010011111001101101100001110001101101111100111001010000111111110110000
10101011101101000001111111000100101100010011011001001001000101010011001011101010000011000010011001110111100100011001111000111101
00010001011111111100000000100101110011011111000101010101111001001101110101011011001001001011111010010010001010110001101001011100
11111111001100010110000101000110101100010100100100100011001010100101111110101000011000000101101001101110110101010000010101001010
00011110001000000000001000011100100001001001100000000011100110111111001011011101011101011001110010111011110111001110100100001000
11111111111000000101001101100100010100101111011101010101111111100011001110101010011010111110010111100011110000001001010111100110
01101111111000110010101101110101111100111011110000000001001010010111111010110100001110001000011100101010100000011010101110100010
11010010100100000111100101000011110011000101111100101000000011111100111000100100110011011100111011001101111000000101100010000000
10111001011010110001001001011110000010010101100011011100101001111000001001011010100011000001001010010110011010101001001101010111
00111100001000111011010100100110000001111100001100011111111100101010101010001110011000111001100010111011011101000100110100001100
01000001010111100011001010101001111001000101110111110100101110011000111011111100110100110001101000001001101110111101100000011100
11110101011111101101101110110110110101011110000101110001001011110111101110001011001011000010100001010010010011010011101010101011
01000110001111111111001101101101111001010110111100100111011010100111100110001011011001111101100000111010011001010100000101001110
00010110001100000001000001100100010110111110100000011000010110001100101010111110011100011101101100010011110100000001111100000101
11101101001111000111000100000101000111001000011100000001110001001101100000011001010011010110000001100110100111000011111010001011
01101010001000000010100111011110000100100010100100011111010110011010111110111101001110011100011001111101100111100101010000000101
10110110110101010101101011001110110000010000100110001101001111110101101011001011011001111001111001111010110101011111000110000100
00011001011100001100010101011111111000101100110010110000000100111010111011010101111100100010011111001101111110000101001001100110
10100001111000110111110010011010100001000001110111101001000010000001100011010010100101000000000001011000010011111001110011010000
01000100100110011101110110000011101110000000010111100010011110001100100100111001110101111110101001111100100101111110010001011000
01011011010010100100010011010001000110000011101011101000110010011110011110110000001110000011010100010100100010101111111000101111
10001111010000001010001110111011011011110101111011100111111101010010010110110111011100101010000111111001011000110100100001000101
10011111101000011011111011011111110000000001001011011000111110101110011101010111011011101111000101101001100111001110101110110110
01100000010001100110010001110000000101001110100100010111101010001010100000101001100011100000000110010100011010110001110111100010
11010111110000001100101011011101110110100111100111111000111001111110010100110101001100001010101100011001100110100011001010011111
11111010111010110111000000000110010101011010110101010101010011100111000000000010011000010000110101011010010000000001100111100001
10111011001010000000100101011100001110100111010100100111001010010011001000101110110111010100000011110011011100000000110101010111
10100111100001111000011110000010101111111000101110101000000000011111101100101010110011010011010001110110011001011101001110100010
10111011110001000000011111111010000100110101011010100001001101011111001010000100110111100001000001100101010001001111101111010010
01000111011111010001010100111101001101000110110001000010101001100100100110011111111110011101101010100101001010110100111001100110
11010001100100110001100101110111011011101111001101000000011001100100010100011010011001100110010110010010011011100001111001110101
10101011110001110001111111011011011110110111000011111000000011011011001100100100100011000010011111010101100010100011001101110100
00000100100101010001010011100011001010001111110010010110010110011000110011110100100101000000011010001101001111101100111010110001
11110101110111110101110110101011111100000001011111100000111111001100010011110000011110100011111101100110111010111111101011110011
11101010100001011010011101010110001100110111010110011111001100101011101100100010111110111100010010100001111101101100000111001000
01100101001111111100111111101000001110001110111101100010111101001111100001101011100100110010110101101010011111010001110101111110
00010001101000111111110000100110100111001100010010001110101101101000101001001111001001111100011011011010101110011000010111001100
11100011111000000011101111011011011110010111010111110111001010010110011100010011011010110100001111111101100000100101001111110010
01011000011110011001010001111101111000110111101111010010001100000010010011011111000000100100111111000001011010101100101011111110
01101001100101010110101110100100110100000111010101100001001110110010000010100100110110100011010111101100001100010111001001101000
11010110001000010111111111101111011010110111010111011111001000101101110100111011010101111110101011111000111000101000000011001110
00111100001011001000001010011111100001010001000000010001100110111111001010101001101111011001100000001111000011111111110110000001
01110100100011110001110110101101010011100100011101100110110100100110010110111110011110101110110101101011101000100000110010111110
00001100010111110010001000010001000001011000101000010101110101110111001011101101101000001001110000001111011010110111110010000100
11111010000000100010011011110010000100101000001001111110101110111010101010111100100011010011000001001101101000101110110100010110
11010110001100000001100001000110010111101010101101011100110111101101110111011011011000011101101111001001111001000100110000100000
00001011011100110010000111000101001001101000010011100111011000001000010101010010011100101000011110010010011100100011000001110010
11000101111111010111101000000101111111010001000101010100100000001101111001110000011101100111101100000010100111111101001001011100
01001100110111001000100010001011110000001000100001000001010111100100000011011000001010001110000100000010100011010111111010111111
11001011000101011100101100110001011001111101011111110001011000010111101110100010110110110110000011110111011000000001111101110011
10011110111011010111111011001101001100100010101001001110000110100100010000010010011010000011101010101000100100101000011100110100
11101100011010110111000111010101001100110010100110110101010001000011010010001000001010011001110000111111111100100001110100001111
01100001101111111101110111101111111111011011010011101000101001011100110101110001100101100010101101110000100011110000110011110100
11111001000000101100100101010101000110101011101001001000010001100111000000011110011011010110110111010010100000000000101110110111
11100101101000110101101100000111101011001011011101000100100000101101110001011000011100100110111000110010100111011001011001111100
10110010011001010011001001101010110101111100101010011101100101111011101001001001011000101001100000001110101100001101000100011000
00000000111010101110111000000110100111111010101100011000000011011110101101001101101001011101101010010000000011111110000100001010
11110101011101100001001000110011100001001110101101010001111011000101000011101000101010001011110100000111001011010011101010101111
00100001100011100000000001010110100001001101000001000110100010101001001001111101100110011001011010001111001111111000011111010011
11000000001100000101100000100100100011001010100001000010010001101101110011011110011100010111110101010010001010010001111000011101
01101011011111110001001011011110010101110101101000110101110111111011000111010010001010000011011100000001001010110111101000010111
11100101111110001101001010100111111101011000010001000001110111001101110011011011011010110011110100100101011011111111101011101110
10000011111000001100111110101001011110110001001111111000000010011000110100110110101001110110101101111000100001111110001010011010
11100100001101100001010100001100010100101001011110110001010100110000010000100100100000111011001100101011001101011000001011101111
10110001100110011101010110001111110111100000110100101101001111011101111100111110001001110100111100100000000010010100011111011100
11101001001010000010110110100001010010111010100001001000110011101101001011100110101001010101000111100111000011110010010110000001
00011000100010101000000000011000100011011110101000000001100111111000000011001101100001001001011000000111001111111111111110101000
00010111101010001100101001011100110010110101010111101011101010011101101101100101011010111101101110010000110101100011001111100011
11111000110111110111010100110000101101101100110010100010001101101000000010011110100001100010010111001111001011011010111011111001
11111110100011010011110011001010011000100001000001000010110100111110010010110010111011101010000101100001100001001110011111100110
11000000000101101011000000100000100101100111101000010001011110000010100111011000011110111011011010011101011111111101110011001000
00111000101000001001110101110010011110000000000101011110001010101000111000110111101111011100010011111011100001101000010011111011
11101011110111011101111010000010111100010001011001000001011101010111100000000100100010111111100101100111100111010111011000110111
10111010111000100010110101110110000111011011100000011101000111111011101100001011011011010101011101000011110101101000001110010100
10010110111110111101101101100110111111011101110001011100001011101101111111011010011000100101101000000010101111011001100011001100
11101000111000111001111111101001001110011110100111111001011001100110000010101010100010000111000111100111011001001011011110111010
00000100000100010010110100010111011011000011011000001110110000000100110000110010011100111101111100111010110110011000010011001100
11100111111011111011011110001111011100110000011011100100000110010100010110110100100110110110000111000101000011001101100110111110
01001100111111111001100010100011100010000010000010100000110000010100010011110010111110011110000100000011100010111111110000111110
10100110101001010011100110001011100100011000000101011100000101101001100111110001000001011011100001011100110100100011010110011011
01100101000010011111101010001101101100010000000101001001010100001111110000100001001101011000101101111110100100010111000100011000
10001010111010000001101001000101111111000000000110010110101000111111000001010011100101001010000001010000111010001011011111001001
11000101000110011111011100100011111001001110010101000100111001001101110011101000110100110011110101110110011011111110001011111010
11101001101000010110110110001001011010011011011110110110100011100010111100010010100111110100100011111100101101111000010011010000
00000100111011100011001000001111110011001001101000011000101111101001111011000011011001101001111000101011001010011100100001011100
10011100000101011011110100101000110110000011010010111001101110101011101011100011011101111111001010101010010101011101011110100111
10000101010011001111010100001101101100000000100000110111101110010010101101110000100001101001111101010000000111111001010100001000
11010111111100011101111100001101010011001001011001000100111001110101000001010010011010111110100101100010111000011001001101101001
10011100100100011010110001000111001010001001110001001110110010101010110100010010011101011100111100101011010001111000011011001011
10011010011010100011011100111111110011010000000000101110010010110000101000000010011000001001111000101111010101011000100101011100
01100110010101101110001010011001110100010001111111100001010100011100110111110101011101111011100100111101100011010111000011101100
00110110001000000111101011111110011101110111100101110000001010100011111100001111011010011100101010011000111000001000000111000100
00010001010011110000011011011101001101110110011010011010101001000011010111000001010010011101111100100001100101000111001111000001
00000101101000011101100000100101101011011110011101010110100000001001101001111011001101111111110010111100011110010110110001001100
01111111100110001011101010000001111100001011110101100001101111111011010010000000111001000011101100100110101111001010111111001010
10010000110001001111100000001110100111000011100111101011011010111101001011000111100111001100001000101001000111111000111001110000
10001111111100001111111000000110000010001000100110100010110010110110011011101110001111010011000001001110111111101001111010011001
10000101101101010110110100000111101010100001011101010010011010000101110010011010110100110110110000111110110101111000010001010100
10101001110111101001010110001110001100101011011000111100000111011001011010110110100111100010010001100111001010011101111011010111
01000010010110001110010011111001000010100100101010110110010010011000111101110101100100011101001010101001001100101100110011000111
01100010000101001000010011011011001100010011001100100101011110010110100010010001100101001011100001101001000000100110101000110010
11001001101101000000011010111111100001111010110100101001101010000110110001110110100011000101101110101110101011010111000110001001
10111000010100101011010000110000000011101100100010011101100111111000011111011101011011101001011010001011011011101111100100000001
11010100100011000011110111110110100000000110000100100111101110110101111011010010101110110100110001010000101001011111010100001001
01000110010000100101001100110101010100101110100000010001010100110110100100000111001100011001001010001001011101110010111100011101
11111011111011110001111101010010011110001111011111100100011001101000000100110010110011100100010111100110101011001001011111010101
11111100001110000110101111010110000000111000111101000111001011000111100100001001011001111110101001111010110111000101100001000001
00010110000000001111001011011100010110110111111111100110010110110011101110001111011000011001111010011001011110000100000101000100
11000101100011010011110111000001011110100011011111100010010010000100110100110000100111110110011111100110001011101000001011110111
00001000010111101000010010001011100100011110101001101000100110011000100011100101100101011001101100001010000010110111111000000001
01100101000010011110100100000001101010000011000101000101001000110101110111111101101100011111111100010010100011110111100010011011
00010110110001011000001101110101011001101100010101011111110011100001001010001101010100010010110011100001100101001111100101110101
10110110110011000101110101000001101101000111000100110110110010010000111011011000110001100111000110000101100100001000110010001010
00100011100111111110110111101001001110110111011110110110001000000010111100110111110100111100001011111000111000101000010011011000
11101011001000011101100111100101011100011110011100100111011101110011100010000010101110010110111101100101001000000111001010110000
11111110011101111111001111001100011101111011010100000101010001010101111110001010011001000011111101100010100000001101101000111110
01111011011000100010110011001010001010100010101111111000000000111101011101010100100010000111001101000111101000100011101100010011
10111010011011111010010110111011111001010011111010100111010110010000001011100101110010101001111000101101001011110111011111001100
01011101001001010000110001001001101010100010101010001110110110001100110000110000110010010110111001100111100100000110010000111010
11110101000000010110011110111001001100000111010110100110001100001101110100110011110100111110111000111100111101100000010011100000
10011111111011110111111100001010011110000001010110111110000110101010111000010010100111110100011011101001100100111000000001011000
01100111100110001100100100001010100100010110010100101001011011101101100000001001100010000110000011000010110110010001011111100011
00011101001111110010011111011111010000011011011001010111011100010111110101001010000000111101100000000011000011001100101000111101
10010001000111011011010100100000010101101110011011110010011001001000000111111101110110110110010111101101011010101000111001110011
11100010101110011101110101110011101000111100000100100010001010001110100000001001101011010110101111010010111101100000010100000110
01110000110110001111100010101011110101010100100101110001111111100001111101001111011001111111010101011101000111111111100101100111
10111001010110111010010001111100001111110101011000010111001100010010101001001100010100100010111110010010000101110110100111110110
00111100010111101110000011001100000001010100101000010101000110111011001011011101011011001001011010001101011001100111101110000011
00101001100111100101010100001000000100001000111001000000110101011011000011110100100111000011000100000110100111110111111000111001
11111011111001101001001111101010011100110111010010100001011101010010001010100000110110000011101101100101100100000011101100011001
00100111001101111100111001100000001111011100101011010011001010000100001101011110001100010100001000111001101101001100011001100111
10011010101110101110111001100111100111011110111111010011000100100110110000110011001010100011010011000010111101111100101101000101
01101001010111110001000110010000101001111010010000100001010001011111000010100000100010100010110000000110000010010011111101111101
00101111100000010010111111010000001100111011011110101111011000001010011100100110111110101100100011100111010100000000100101000010
01100001001011011101011111000011101110011011001100001101101010000110110001101000100111100100101101010110100110110010011010110011
01000001010101001011010011101001100001000111101011110000101010010000000011110000100111010011001000100001001110111010011000110011
11001100101101101111000010101100100001010000100110100001100111100101010001101011110111000000010000010110000010111111000111100100
11001101100100110001100111111101011011100110010001000010010000000111010010111010011100110100111000110011111111001001111001011100
11000001000011011100111110000001101110010010000101111000101011000100100000101010100100100110110101110110100011011011001001111011
01100100010111110101001011100101101101011010000101000111001111100101100010011001100001111011100100011110111010010111100000011010
00010111001010011000101011001101001000110000101111100001100010011111111001100101001110011101101000100001110111010110001110000000
11111001011011111001010110001010011100111001101010110101000111111010001010100000110110000011000101100101100010110001111101110011
00100000101101010011011111000001101100000010011000100111010110000100110010111001110100111010101011111101011010100110110011110000
01000001001110010100100100110011111011101001011111000001111011000100000001000000001100101111100101100110001010010101101011111111
10101011011011110000110111010011011011100101111111100110100010011000111101110100100101100000101011101101000100100100011110010101
00010000001111100010110001111000100011110100100010101111010110010010111111110101100101011001001000011001001100101110110100000011
10100101111010100100110110101001111110000101100001110010111010011000110100110100100101010101001100100001100110111100011000110011
01000100100001011110000100100010001011101110100110000110111010001110001000101101111100111101110010111111011100010000010111001100
00011010011000100000011011001100000011111011111000000011110010111001001111001000000000001001011000101010000100001110110101000011
01000110110010111011100110000101001010100000011111001110011100000101110000010010011000010101111100111000101010010001000001110110
01110001000111101101001000100000100101001100000001100001101111111000001011101011100000100011000101010110000111011111111101101011
11010011110110110000101010110101110011110110101100010000001100011111110010011101101010001110100010110111000111001010101011101010
00011010100110000010000101110001000010111110111100011010001100101010001100101101100100111001000011111000010100001000110111100000
00101111110011000001011001010000000000111000100001111001000011110001001001011101000011011001010100010110100111110010001110000011
00011110111011100111100011001111100010000011100000000100000100110111010000000001011011011101111000001010100010011110000110001000
01100000111010011111111100110000100111011101000110111001111011000001100101101101111001000011010001000010001101011111101001101100
01000001101010111111101100001111100010011001000101001110101010001101110100011111001100001111101101011010100101110111001010011100
01110111010101011100101010111111011100010011000100100011010001110111110100001000011001011011101010110100110101110001001110001100
01111100101101110001001111101111111001100111011110110011111010100011100010000010010101110011101000101111011000001100110111110000
00101000000111110000010110010001001110101010011000000111010110000011010010111101100101000010010001101111100110111110010011011001
11110111111110111011101111100111011110010111011101100100001001100101010100110010111011100100101101010100100011000000001111110001
10110110011100100011101011011100010101110011101000101100100001110010001110000010011010011001001000001001110010000100001100000100
01000001110001111101100100100111111111001111010111110001111101000101100000100010100101100110110101110110011111010111101001111000
01000101100000001111110100100110000011001100100111011010100010001100100001110101001101110101011110001011011111011000011011111000
