10010001000111000100100000100010010011001101110111000111111010001100101001111001100001100010110011000010010000010110100011001010
11110111100101100100110011011000010101100101011111001100010010001110010101000100101000010011001111000011100111111001011101111101
11101100100100101001001100100110110101101110000100010001010101100100100010001010010000011101110010100110011100000101010101000100
11111101111101101111001011001100100110111010100000111001001101010110000010111100010110100110111011100110101001001010011110010101
10100110101000110011010111110000111100100100110000110000001100110010001011001110110110000010000010111101001001001000110100001011
01100100000101011010110000100011001100100011101111011101101100100111010010100001110101110010110101110011011001100111000100011000
00010110010010001111110011100110111000000101010111110001001011011000100101011101111011011110000001111010010110010000101110011011
10000101110111011110111100010101001010101110111010110010001010101110111000111011000001001001101011011010001001001100110111000001
11001001111111010001010110111001011000000100110011101001111101111000011101110100100111010000011001001101100011011001001100011010
11000011010110000101111010101110110100010110101101101101111001110111001001101001001000011000000101000100100110000111101010101100
10011111000011100011111110000010011001000110100000100110010110110010011110010100010110111110110010101011001000111011110111001101
11111101111001000010010110110010000101001110001100011001110010011000101010100110000111001000011100101101000001111111110000010011
10101111010110010000101011011111011110110001111111100100001111100111011100010010011111110100101101100000100110000101000010010010
11101011100010110011000110010011111100001111010101110000101010110100100010111001011010011011000111110100010011000101000110110000
10110000101011011110101100001001101101101010110111000110001000111111000101010111101101001000010000011000100111011000001100010000
10011010101001100010011100110110000110110000110011111000011000000011011110000110101001001001000010101011001101000111011110100111
01100010011001101010111111010111100011111011110000000100001100111000110101101000010101000101100001001110010110110011011011011101
00011000101011011000111000000100010010110110010110100110011100100110101101001011011001111011101110001000000111010000010111101000
00010001111111110100111000011011100001110010001011111110011100000000000001010110011101011001001001000010010110000010001111110110
11001110010000000011111100001010110101001011110100001100111101101010111101110110110010101111010100011101110001110111000110100111
11100011010001011100111010100010101111101100100011001110111101010101010001010110010000001000110000000101110000011001101000111000
11000011001110011001101101101101110111011010001101101001100010010101111101001111101110011011110000011100100011011000100001110100
00111011111101001111001011011011110000010001001010100100100110010001111100100001101111011111111000001100111100011111100110101100
01100011000110011101100011000111100001010101101111010001011111110101101000001000011111011110100101110110100010010001101001001001
11100011000101000011101000010110101000100001010100100000111010000111000010000011000011100101001111110101000101100111100001100011
00010111000010000000100110100101001010010111001101111111001000000000111100101111011101011101100011111110010000101100100010101001
10111011101010001100110101010011100010100011110011000101101111010100010011101010010001010111010000010111010000110101010110001101
00111000000001110000011001010110010100111111111011001001110111101011001011101101101011001110110110011010011111011011011010100101
11110111111101101110110101100011101000101010001110011101000000100100111100001011011001011001011010011111110111100100010100111001
11110111010011010011010011011101111010100000010001101011001111011010101101110100100111100111011010101101011010001011101011011101
00100011001110101101110100010100111101110110011001110000011100001100100010111000001010001110101000001010000010010100011001011100
10010111111010010010001011111111110000010101111110111100001110100110101111110111111011101100101000110000110101110110000001010100
10011001100010001101000000000110101011111101000001010011010101101101110010001001011001011001011011011111011110110001110010011011
10011100100111100000111000111010010001111100100010101110100001111100010101000000101000011011000111000011000100010010101100101001
11011000101111101001110110011100001000011000100111100011101011011111001010001001100111111011001100100110111110100100110110011100
11101101000010011001000110011011011101111111111100100011000100010110001010101010110111010111100011111111100001110100011101111111
00000010010011001100110001101111000000001111110001100111100001001001110110011101101100001001110010011110011111111110111000111010
11111110011001100101111111001100010100010001111111001101001110010001001100100101111011110111111101101001000101000111101010000011
10100000101010110010111101110010011001100111011010100011001010100010110100110010101000110100101111111000011100011000010101101000
11111010101010001111001101000010110110011000001111101110101011100101101000010101100100101011100110011001001011110101001001010000
11101001111101001010101011010001000111101011110000000011111101111000110010110101101101110011111110100111101111001101010001110011
10010111010100101001110100110111011111101010010001010110010100011100110110111001111101001111010110110010101001001110010001001101
11011011101001010110010111001011011100100110000101100010011011010011000000010010100111100010000111011111011000001111011100110101
01000110000100000000111001110011001001101100111110101001101100000100010011100001001110011011011100111010011110111011000101101110
00001000001000110110010011010111000011000000010100011010000110001111000001101101101111111100000010011110010111110100010010100100
11110100101110000111101000001010011011111111111100011111011100100011001000101010011100111101111011100011011101101100000111001111
11010001001011110100100100111001101101110101010010100001011110001101000010001010110010000111100011000101000110100110100000010100
01101111111110010000001011110101011011010110111100100000111110101001011110010111001111111010001110001101011000000100000101100110
01100001000010010001001100100100001011000010011010110000111100101010111001100011010111100000010111110000011001010100001001110100
10011001000100011111111010110010101011000011010000011110000010100000111000001101011011000011000100001101101010111000010111001001
10110011001111110100100101101100001011110110111000001010111101100111010010111011111010010101000101110100100000001111000001111111
00100010100110010101111101111011001110000010110100000011011101011000110010011100101000111111100010100010110111111100010000110010
01110101101110100000111111101011000100100010010110101001001110000000000001001000111110100010011011110111011101000011111110000001
00011000011011110011000010001110101001101011101001011000010101010101001011101000010111001001010101101001000110011111111101100001
10010000101111000101110100001110010110000001101110101110001011111011000111110110100011000100000000100100100110101000011011111000
01101010110010111111000110011101011111011010100010101000010111011100001110110010010000100010111001111001101011110010101000111111
01111000011111100010001010101000010101110110100000111100110101101000001111011110011010001011001011001001001011111111101100110111
10111010110010100110110000011111111011000001011000111110001111101111111100110110000001010001000001100010100001010000000111110001
01111011110001100011111000111101000001110110110001100100000011100110000111010100001100111000001101111011011011001101100100100000
00111010011001000001011111100101010100001100111110100000011110011001001100111011000000101100111011101100000000001100111101110111
10000010011000100111000101100010011101110110011000011010001111100001111100000011001001011101101111110000110101001101100001001010
10011110011111000001001001011000010010110001100010011100110100110010001100100100100110101011001100000111001101101010111110010111
10010100110111101010000010100001100010100101110000011001101101100001011110101101110110100111000000111000100100111011110010101000
01010010010010001000011011100110011011111100111010111101110101011010010000000100001010010001011100101111111000111010101101110101
00110101110001001110111001100100100111011011111110011001111010111000101000111010000110111111010001011000101001101000100001001010
01000001001010010101000100100100101001101110000010110110011110111110011110011110001011110101000011100101010100001100101100101110
10100001100101001010011000101011101101001100100110011000110100001010011011010000010000110010100000100101101010101011110100011110
11100100000000001101100101010011000000110101001101110001000101111111100101100101000111100111101111111011111000100011001110001111
11010011010010010111100001101111110101011101000011001001001001111011001001101101101011111011110100010100010001001001001101100001
10011000100000010100110010010110100011001001100011001011100000101101100001011111011001000101110000011110110000110000010011010011
10101010101101011101010111010110011111101100011001110000101101111111110110110011110001110011000011101010001001000001101001100010
00111011111010101111010100000010010010101000000001100001110100110100110100010011011010110100101001101010101110101011000110001100
11101011001011011111010010100011111110101000001010111101100110011000111101111101100101000010010000100100001110111110101011111100
00110010100100011110010110101001011110000111110111110101111010011010001001100000001110101111000111111010011010010100110010000100
00011101111110011011001010001101110100100001001111001100000101010111011101011011011001001111110000001000100011010011001000011100
01011010000100101000001000110010100101011100000110011111011111101111101010001011011011101101110001001111110001011011011100101100
01100100000000011110010000010110110000001000011100001101111111101100100010101010010001000111010111100000011011011011101000010000
11001110000101000100011011111011111100011010110110111110001110011011011110101001111001111001101010111000111111111000010111101000
00110111111101100111011010110110010100011101110011110101111011010011111011000011001100001010101101000110011111111110101010101000
00000110101000001111110111011111001100000011111100001010001100100101110100010011011100111110111001111000111111010100010111101010
11100000110110100011010010000111100101110110111101110010000000011001101101000001100011010011100101110111000110110001110010001111
01110010010011001100010011000100111001111011101110100110001011111001101100111010101100001000101100111010011111100110000110110000
00000100010111001001000001011111011001100001011011111000111111011001011111111101100100010000001110001100100011110000100111001100
10001100101100100110000010110000001100101001111010000000111001011001001011011111110010111000001110010001000100111011101100101101
00111110101011001111010100111101010101110110100010111110100010000101101110010011100111101100010011011010110100000010010011101000
01000101000000011110101000010111001100011010010101101001011011010101110101011111010100001001101110011000110011011110000110011010
01100101001101111110001110011111000010001001000101111010100100011000100110000100100110101011111100000000000101001111011000100111
01011010110110111110011111011001011101101110111010001010010000000100111001010011100111000001101001111010100001110010101101100100
11111100111001110101011100100001110100001011000000000011010001001101100001100000010001100011110110100110011001111111110110100111
00110001111010110111110001110111010000101101010001001010100011101000001001000001111111100110010011110000101100000000001011101010
10110110000010011010011011110011100001001001100001111001101011110111100011100110111110010011100000001101001111111111011000000001
01101001111111110101110011101111110000110011010011011101110100010100110110110011111000100011011100110011111011011111001101100101
01000100011100110010000000011111001011110111111101001101011010011111001101101100001110001101101111110111001011000111111110110000
00101111101101011100111111110100101000111110011111011111100101011011000111111111000011000010001001110011010110111101000100111101
00010011011101100100000001100101110011011100110000011000101101110011110011011000001001101001101010100110001010110100101001101111
01111111000000011111010101000110101110010100100101101010001010101101111110101101011100100101101001101110010001011001010111000010
00000110111010001100011010011100100100000001100100000011001111011101000110001110111001111111100000111010100011111101110001001000
11111101100100100100011001100000111110111010111001011011111110000011011100101010011110010110010100000011100000010001011111000100
01101111111000110011101101110101111110111011110000000001001010110111111010110100000110001000011100101010100010011010101110101010
11010010100100000111100101000011110111000101111100111000000111011100111000100100010011011100111011001101111000000101100010000000
11110010111111010001000000011100111111001001110100111000101011110000101001000110100011000101001000010110111111111000011100100110
00011000111001011010111100001010100011011100011100011101111100101101001011001010011000111101001010000011110101001000110100001110
11100000111110110101001111101001100001001101110100110100110111001000111011111101110100000001001000011011011110011111110001101100
11111101001111111111100110110111110101011010010101000001111011011111011101011011001000101010010100010010100101001001101010100011
00000110001111100110011111100101101100110110101100100101011110100111110110101111010011011100100000011010011000010101100001100110
10111110001101011001101101011000110101010111010000010001010111011110011001000110000010111100000100000101110100100000111100110101
11111110111111000111000100000001101111011010011100000001110001001011100001011001010111010010000011101011100011010101011110000010
11101110101001000000111011011010001110010010000100111111010110011010111111101100011110011101011010111001101111101101110100000100
10110111100100000101110011001100110110010010111110101100101111110101101101011000111111111001111001110001110101001110001010000000
00011001011100001100010100011111111000101000110010100000000100111010111011010101111101100010011111001100111110100101001000100110
00100001111000110111110000011010100101000001110111001001000010000001100011010010100101001000010001011000010011111001110011010000
01100100000110000111110110100011110010000000110101110110001111001111100110111001100101011010110001111110000011110010011001001000
11011011111000110100010101010001001110000001111101101000101111001110011000101000001100001011010100110101110010011111101100101111
11101001011000011101001101101011110010010101011110100100111000010010010101111111011100110011100111111001111000100110101001110111
10011110111011000011110001011110110000000001001011010000111111000110001101010100000011101110100000110011100101101111001011010110
01101000011011100011110001111000001101000110100010010111111111011010001011101001100101110010000010101011011011100010110011110000
11011111010000010110110000101101110110011110011010010000111000111100010100010001011100101101011100001001100110110010000110111111
11111001010010110110000110001110001101001010010111010101010011110111000000000010011000111100010111111100110110010101001110101001
10011001101010010000110101101100000110111011000100101110001110010011001100001010011111010000000011010101000001000000101000000011
00100111100011111000011110000010101111111010101110101010000000011111101100101110110011010010010001110111011001011101001110100010
11101010110101000000011111010010000100110001001000100101011101101001001010100110100111100001000101100101001011101111001100001010
01000111011110010001010100111101001101000110110001000010101001100101100010011111111110011101101010100100001010110100111001100110
11000001100101110001100101010111000011111111101001000000011001101101110101011010100101100110001110010110001011100001110011011101
01011011110001010011111111011111011100101111000001010011010010110011001100000101100111100011011110111110100111100011101101010100
10110000000100010101000011100001001010001001110010000111010111011000110101011000100100001000101010011011100111001100101010111001
11100101111111110011010110100011111100000001011001010011101010111110100011111100010110110011110101100111110010111011101011110011
11101010100100001011011101110100011001111110000000001101000101101011111010110010011010010100110010100001111100011101000111101110
01101000001111110100101111111000001010101010111101101000110001001101100001101111000100110010111111101011001101011101110101101001
11000000101010111110110001110010100111001100010110111111101001001010101011001111000001111100111011010000111000110000011111101110
11100010101001010011001111111000100010110011000110110111001111000110001100010011011010110101010111110100001010011101000111110011
01011000001110001001010001111101111000110111100111110010000101010011010001111111000000000100111111001001011010101100101011111110
01101001000111010111000110101001010100000111010101101001001110010101100010101010111011100011010111100100011100110011100001011011
11110110001000010101011111001101011110110111010011011011101000101101110101001011010101101110010111101100101010011110010010000110
00111110101011011000100011011101100001100100000000101101101111011011011010001011101111011010110110011111100010111111010010001011
01100100110111100000100001101001111111110110101101100110011100010110010010000101000110101110110101100011101000100000011011111010
11000111010011110110000000011001000101011001001110001101111110110111111111011100101100001111101100010110001010010111110010101101
00010001000000100010011110000010010100101010100100101011100111010010101110101100110011111000000001101001011000101011110000110110
01010100100110000100010101110100010010110000011000011100010111101111110111011001011001001111101100001000110001000100001110000000
10001011010100100010000111000101001011101000010111100111011010001100010101010010011100001000011100010010111100100011000000110010
11000001110110000111001011000101101001010000100001110100100000001011111111000000010101110111111110001000111110101101000000011110
01000101010011001101101010011010011100001100110101101101011111110111001011001000000110001110100100000010100111111010111010101111
01001111101101011101101100100101011001111101001110110001011110010101111100001110110100110100001011110010011000000001101101110001
10111110110001011101111001001101001110110010001010010110010010100110000000111000011000010001001011101000101010001100101100010101
11101110010010010111000011010101001100110010000110010101010001001001010010001000000010101001010000111101111100100001110100101111
01000101001001010101111110100101110111011010010110100100001001001100110101110011100101100010100100110000110011110100110011110110
11110101011011001100100100010010001110101011101100011000010001110101100000001110111011110111000011101010100000001000111110110110
11100101000010010100100100000000001000001011011101001111100010101101110000111000011000101100111000100011101011011010010001111100
00111010001000000111000011101110110101011000101000011101010111111011001001010011011000001001111001001110100000111101100101111000
10000100111010010010111000100101100001111010101101011010000011011110101111010101100111010001101010010000010011001111010000101010
01011101011101101001000000110101000101001100111111111011110011000110001100011000101000101011110100000111001001000011100010010111
00100101011010110110000001000110100011001101000000010110110011000001001011101101110110110011000000000101010110011000111011010011
01010000001010000100101000000101100011101110000101001100000000110101010011001101001100011110111010010111011111001000010000000101
01111001011101110001011010010100010111101111111000110101111111010101001011010110001110101011010000000111000110110111100000100111
11001000111110000101001110000111101101010000011011000001101111000100110001111001000010110111100010100101010110111111101010111100
01000111111101011101110110001111011010100001111101111010000111111110010000110111000111100110101101111010100010111100001010011000
11100100001101100001010100001100011100101001011110110001010100110000110000100100100001111111101100101010001101011000001011101111
10110001100110011101010111011111110111100000110100101000001101011101111100111110001001110100111100100000000010010100011111011100
11101001001010010010110110100101010010111010100001011000110011101101001011100110001000011001000111100111000011110110010110000001
00001010100010001111101011011011100010010110111100110101000111111000000001001101000001001011001001010010001110011111111111101000
01010111101110011100100001100100110100110001010111110011111010011001001101010100011000111101001100010110110101111000001111101001
11110010111110001101110000010000100001101100100100100010001101111110000010110110101001100011010111011111001011010010011011001001
11111110100001010011010111011010111000100001000001000110010100000110000010000110111001101000000100101000100010100111011110010110
00010000000101000011000100100000101001101001011010010111000100001010111011001101100000001001011010000111001111011001111011011000
00000100100010001101110101010010001100001101100001011110011010001100111100111110011111011100001011000011000001101000011011001011
00100010010111111101101010011101000100110011011000010011011001010111001100001001111110111111110001101110000100000011011000110101
10011011100000000110110101111110010011011001100011110100010111111011111110011011011011000101011010100001010101110001000111100111
10010010001011001101101100100110111011011101011101011000001010111101111011011011010001110101000000000011001111010011100010101010
00111000111000111001001111101001110111111011100011101001001001000000001111001010000110100111001101000111110001011011011010111010
00000101100100010010111010000111011011000011001000001110110000000111010110111010100100111101110110100010110110100000000001110100
11001111000001111011111110101111101100110000011001000100000110011010011110010100111111110110001110010101010011001111110110011110
00001100111001110001110100100001100110110010000100010000010100010100000011110000100110001010000100000101100101001011001000111100
00100110101001010011010110001011100100011000001111011100001101101001000111110001000001011001100001011100110100100111001110011111
01101101001010010011101001001101001110011000100100000000110100011111110000001010010101111000101111111010101110011110011000001010
10001010111010000001101001000101111111000000001110010110101100111111000001000011100101001010000000010000111000001011001111001001
11000101010100001011011000100011111001001000000101000101101000001111110011000000010100010011101101110110011001111010001011011010
11100100101100010110110100011011011010011011111010110110110011101000000110100011010111100101100011110100111101011010010010010001
00000101011000100011001000000111101011100001101000011001100010100001001111101001111101101011111100100010001011011110100001011100
00011100100101111011110100101000110001011111010001010100100110101010001010001011011111111101000000111010010100111101101110100111
00000101010011011111010100001101001100000100100000110111101110011010101101110000000101101001111101010000000111111001010100000000
00110111111001110111110110000111011011111010010001000100101001110101000000010001111010000110110111010011111000001001001101101001
10001100010100011110110011000111001010001001100101001010110010001010110100001000001111000100001111101011000101100010001010010001
00111010100010101111011110110111100011100010000000001110010111010000001111011110111000100111111100100111010111001000110001111110
01100100001101100110001011011101110000110110011011100001011100110110010101110101001111011010000001101001111011011111000011111100
00010010011000100101101011111110011101010111000101110010001010101111111101011101101000001111101010111010101100001100000111000100
11110001010001110001011011001101001101100110000010011011101001000011010111000001010010011101110100100000100101001111001111000001
11000001000011101101100010100100101011011100011101000011110000000001111101111101011101110101100010110100000101000100010001001000
01111111100110011011101010011001111100101111110101000001101111111010010010001001111000100011101100100110101110001010111111001010
10010000110001001111100000001110100111000011000111101011011010111101001011000111100111001100001100101001000111111000111001110000
10001111111110001011111000000110000010001100100110100010110010110110011011101100001111011011001001001011111111101001111010011001
10000001101101110000110111000111101010100001011111110010111010000101110110000010010100110110101011111010010000011000100001011100
00111001110101100001110000101111101010101011011100100101000111011001111010011111001111100010010001000111001010011111101011010110
01100100000110000110110010111011000010100100101110111110010110011010101111010100101100110000001011100000001001111110111011000111
10100110101111111000010010011011001100110010001100000100001110010111100110100101101101001111110011111101000110100110100100011010
11011001101101000000011010111111000001111010110100111000101010000110110001110110000011000100101110101110101011010111000110001001
10111000010000100000010000111110010011100111100011101010100110111000010010010111111010111101100010000010010011111001010000000001
11010100110011000011110111110110100000000110000100100011101110110101111011010110101110110100110001010000101001011111010100001001
01100110010000100101001110110101110100101110100000010001010100110110100100000111001110011001001010001001011101110010011100011101
11111111101011101000011101010100011111001110010111000100001001101000010100010010110000100110011111100101000011011011011111011101
11111100011100000110100010111110000010100011111101001111001000000011111110101000111001111000001000001010110101000001100001011000
00011110000010111110001000011001010100110111011111100010010001111101001010101110101010100001111010001101110110010100010000100100
01000101100111001010010110010011111010111011111011110010011010110000011110100000010111110110011101100110101011101000011110111111
00010010010111100000001000001010100000000110101001101100100111011000001011000101100001001001101101011110000010100111011000001001
00000101000001011110000000000001100110101000010100101100100000110100110101111000111100111110111100010010110011010101001010011010
00000110100001011000000101110101111001101100010101011111110011100011001010001001010110010010110011100001100101001111100101110101
10110111110011010101110101010001101101000111010110110110010110010000111011011100110001101111000110000001100100001000110011001010
01100010100110000110110011100011011010010100111110100011001000100100111010100011111110111100010010010100111000111011010011111100
11101111000001000100001111110101011100011110011100100001011101010111000000100110010110110110110100111110011001100111001111110000
11011111001110101100000001001100001111110111100001000101011001010001011110001010010011011001101001001010100000011101001000101100
01110011001000110000110011111010001011100010011111011000000100111101011001110100110010101111101101000111001000100011101001000001
11110010011110111011010000101000100001011010111010110101011010001100001011100101110110001011111010101111000011111110111011111100
01000001001011011000110011001001101010100010100010001010100100000000111000111100110110010110010101100111101100000010000001111010
10110000000001010110011110111000000100000011010010000101001100001101110100100001010000101101010000000100101101100010010111100001
11011111111011110111111101000110010011000001010110111110000110111110110001000010110111110100001111100001100101001000000001011000
01100111101110100100000000001000110101110110000100101001011011111000100001001101010000000110000011000010101100010001101000100001
00011101001111110011011111011111010000011011011001000111011101010111110101101010000000111111100000011111000011001100100000111101
10010001000110010001010101101001110101001111011011010110111000110100000011101011110010100010010110101101011010101001111101110001
11110001101110011111010100100010100000110100110101100010101010001100101000001010001011011110101111110000111100010000010011000101
00100000100100100111100001100010111001010100100111101001111111111001101101001001000001011111010101011110001110000110000101001110
10111001010100111111010001111100001111010101011000010101001101010010101001001100010110110010111110010010010111110110100111110110
10110000010110001100000011001110000101010110101000010101100111110011011011111101011111011001001000101101011101100111101110000011
11111001110001100101010010001010001100001000011010000000110100011110010001111100101010100101000100000100001101111111111100110000
11101011010101100001011011101001111111010011111011110001001101011010000111000000110110000011101100100101000000010011001101111001
00100111001101111101111001100000001111011100101011010011001011100100001101011110001101010100101000111001101101001100011001100111
10011010101110101110111001100111100011011110101111000011000100110111110000110011101010100011010011001110111101111100111101000111
10000011010101011011101111110100000011010011000001100101010001011111001011100000111010100000001111000111101010011001110100111101
00100110110110110000010010010000101100111111101000001011111000101010010100111110111110101010110011100111010100001000100101000010
01101010101011101001000100000100100110000111001100111101111110010100110001100000100111110101000001010010101110111001011011110001
00010001110101011011010101111001011110000111110110110000101110000000000011110100100111100011001100000111001111100011010000010000
11001100101111001111010011101100100001010000110110100001100110100001010001101011110111000000011000010110000010011111000111100100
11001001110001110001100101110110011010001010110001000110010000000000100000110010010100110100111111010010111111001001111000011101
01010001000011110001101110000000100011010010000101100001101011010111000000101110100000110010110100111111111010001000001001111011
00101100100101110101101010010101110100011110000001000111000111000101100000010010110011111011100110010111111011110110100000111010
10110111000011011010100010101101001100110010111111100110000011001111010101101100011110011101001001101111110110000100000001001000
11111011111000100000011011000111110101001001101011110000000110111001011010110101111110001011000001100100000110100011111101000001
01001000001110010110010110011000101101000111011000100011010010010001111010001100110100111111101010101001000101101100111011111000
11000101001111010101110100110011111110010001010101000001101111011001100001001110010000100010110101100100001001010100100111100111
10001011110111101000010111011011011010100101001111110110001010011000111101110100100101101100101010101101010100100100011110000100
00010011001101000010110101111010100011110101100011010111010110110011111110110101000011001000000010011011101110001110000100000011
01111100110000010110010111101001011111100110110000100000111010011000110001111110101110010110001100101011000110101010111010110011
01000100100011010110010111001011011010001110100010100111001110100111010000001110010110111111000010011111011000110010011111001101
00011010011000001001111011001100100011111101011000010011010010111001001101001000100010101111011010111010100110001110100101000011
01000100010100110100110111100111101010100000101111111110110000001101111000100110011100000101101010101000111000000001010101111110
11110000110111101001001010100001110101000100010011100001101111101110100111101011100000101011000101010100000110111011101101111010
11010011110110110001101010000101110011110010101100010000001110111111111010011101101010000110100010110111000111001010101011101010
00101010100111000100000011010101000110111110111101011000110101110010101110101111010100010001010001010000010100001011110111110000
11101111110111011011011001010000100000111010101011111011010011010011101001100100110011010000010110010010110101110010000010100001
01100110011011100110101010011111101110001011100000000100010100110111011010001101111011011101101010001011100010110110000110001000
11110000101011000110111000010011100010001101100000111011010011000000100011001001100011110011110000010010001110111011101000001100
10000101111011111110101110001111001011010001001001001010111010011111110001011111010000110110001100010010100111110101001010100100
01110101010110000100101011010110110000010011100100100001000100110010100100100000111011110010111000101110111100110111000111001100
00111100100101110001000101100111011001101101011010110110101011101010110010111010010101101010101000100100011000001101101011110000
00101001010001010100110000000000001100001010011000000010011110000000111110010101100101010010001001101111101010111111010110000000
11101111111110111011100011100110011110000100011100101100001001111001110000010010100001001100110100010101111111000000010111010001
01110110011100111000100010010110011101010111101000101100101101110011001110011110111011111000011001001000111010000101011101010101
00000001111011111001101110011110111111011101010001100001111001000101101111100011100101100110111000010010011111010111101001011000
10001101100010001011110110000110001001101110100111011100101010001100101000111110001100011101001101001111001001001000100011111000
