00000001100110010110100100100110100001001101110111000100111011001000101011111111101101100010111010000100001100011011111111001000
11110101100010100100110001011101011010100001011011001100000000111110010101110110100110000110001111000000100111110011011000010101
01101100000100000111000100100110100101011110101100010011010001100100001010001010011010111101110010101010011100011100110100101110
10111101111101100001011011001001101110111010000001111001000011010111010000110000100110000010101000000110100000001001011010010101
10101110001101100011010011110000111001100100100000110000001100001010011011101110110110100000000010101101001011001110110100101010
01100101000101011100101010101011001100101111101110010111111000010110110010100100100111001011101100010001101001110111000000111000
00110110010010001111110011000110111000000100010111110001001011011001100101011101111011011110000001111010010110010000101110011011
00000000100110011110111100011100101111011101011100000010001010001100111100011111010101111101101010011010001011101000010111010000
10101011110111000000000110111001010000000101011011111000101100111010010111110100110111000000001111000001000011101000001000010001
11110010111110001101101011101011110100010101100111111001111001110101010101000101011000001010001100011100000011110001001010100101
10111011000110100010011101010010011001100100110000100110000110111011001010010110010110011000110010101011001000101000110110000101
10101000111001100011010110011010000101001100111010111000001110011000011011110110100111000000010010101101000011111110111000110011
10101111011010110000001111001111111110110001011111010110000011010111011100000010101010101000101101110110100110010101000011011010
11101111100110111111000101010011111100010111010001110001111111110110100010101000010010010010000111110101110011010101000111110010
10111000100011011110101100001001101101101010110111100110001000111111000101010111101101000000010000011000100111011000001100010000
00011010100001100010011101110010000001110100111010111011010100010011001010101101100001001000000010101111011100101110010110000111
11100010011001101011111111010111100011101011110101000100001110111000110001100000110101000101100001011110010110110011010011011101
00011110101010011110111000010100010000110100110110001110101110101110111101000101011001111111010110001000011111000100010111100000
00010001111011110100111010011011100000010000001011111110011100000000001001110010010101011001001001000010100100000010011111110111
11001110010000000011111100001010110101001011100100001100111101111110111101110110110010101111000100011101110011110111000110100111
11000000110001101100111010001011100111001000100011101000100000011101010001110000101100001011111100000110100011011111001000111000
01000001001110011001101101101101110111011010001101111001100100010101111101001111101100011011110100011000100011011000100001110100
00101110011111011010001011011101110001010001001111100000100110011111111111100001001111011011100000111001011101010111100010101000
01110011010110011101101000010011101000010101000111001101011111110111000110001010111011001111100101110110110001010001101101001001
11101001010111100001101000100010101000110001010100101001011110000111001000001100100011100001001100100111001101010111001001001011
00010110100000000010100111100101011010110111101111010110001010000100110100111111011101011110101011111000110000101100010011100010
10111011100010001100110101010011100010100011110111100101101011010100010011100010010001010111010000010111010000110101010110001101
00101010000101001100011001010010010001100111110110111001110111001010001001111101100011001110010011011001001111101111001010100111
10100010101010001111110101100001101100101110101110010111000000100100101000001111011101011101111001111110110010110100010100011000
11000111010111010010011011011101010010100000011011111000100011011000010101110100000111100110101010001000110010101011101011110101
00100011001110101100110100010100111101110110011001010000011100001100100010111000001010001110101000001010000000010100011001011100
10011111111011010111101010111101110000010101111110101111001010110110001111100111011011111111101010110001110011110110001001001100
00011001100000001101000000110110001001111111010011010001010101101101110011001001011001011001011111011111011110100001110000000011
00111000010000100000111000110000010010100100100010111110100100111010011111010111001010011111000111000011000100100110111100100001
11111000100111001001110100011100001000011000100110101011101011000110001010001001100111011010000111100111011100000100110110011100
11111110100111011001000100010010001100110010111100000011000100010110000010100000110111110110100101110100111101010110010001100111
00000000000000001110111000010011100111011111100000011100100001001100110111111101100100011101011010110010010111111111110000101010
10101011011001110101001011001000010100110001011011101100001111110011011111010101101011100001111101100001100110000111001010010001
11000011001000010110111101110011011010100111010110110110101000100010111101110111100100110100001011111000011100111000010101101100
11111010100010001111001101000010110110011000001111101110101011100101101000010111100110111011100010011101101011110101001001011000
10101001111101001010101111010001000111101011111000000011011100101000010010110101101101110011111110100111101111001101010001110011
10010111010100101001110100110111011111111010011001010110010100011100110110111001011101001111010110010010101001001110010001000101
11101011000101100001101111110011001100110110001111110001010010010011001000100010100110000110010011110111100000101101111100110101
01000110001101000000111001110011001001101101111010011001101100001100010111100101001110111011011100111010011110110011000001101110
10001100000100010010001101010011001010001101110100000010001010001101100010111101100100011000010000111110000111111100110001000100
11011010111100110011001110111110111001010111111110010111011000100011101110001010011000111101111011101011011001010100000111001100
01010101101111000101001100100001101101101101010000100110010111001101000011001010110110100011000011101111001110010111111100111100
01101001111110010000001011110101011011010110111110000000111100101000011110010111001111111010001110001101011000000100001101100110
11000010100000010111001100100101011001100111011110010110011100100010110000000010010111100010010010111001011001011100000001111100
10011001000100011111111010110010101011000011010100101110000011100000111001101100011011000011000100001101111010111000010111001001
10111111001100010110100101011100001010110011011100001111111000100111010100011010111010110100000101111000110000001000000101000111
01100100100011010010110100110110001001001100110100001011000100001000101000111110100100010110000111010010111110110100010001100011
11111101100100000011000111100111000101101110101101100001011010100011000010101010111110011110000111011011011100001011111110000011
11101100011010110001001111000110101001011011111001000101010101000101001011101000010111100001010000101101100010111011101001111011
10000001111001000001110010001010011110000101111110111110000110011000010111110100100111010100001010100101100110101000011011111001
01101001110011110101000110011111111111100011010011111100001011111101010111110010000010100010111101000011101011111011101001110101
01111000011111100000000010011100010101110110100000111101100101110000001011001110011010001001000110001001001011101111100100110111
01111111101010110110110101001110111100010001011111101100001110111110100100000010011001111101000101111010100001110100000111110010
01111011110001100011011001111101000001110110010001100100000011100110000110010100001100111000001101111011011011001101100100100000
00111010011011110010111111011100011100110100111010111100000110111001001100110010100000101000001011101100000000001100100101010111
10010010111000001111001001100111110100011110101101011001111111110101111001001010011001000001111100111010110001001101000000101010
10011110110111000000001011011000010000110011100011100101110100110010011110110101100110001011001100000001101101100111111110010011
10011100110111101010000010000001100010100101100000111001101101100101011110101001110110100111000000111100100000111011110010101000
10011010010000100000011011101110010001110100101010111101110101111000011111010110001010000001000110000111011000111010101100010101
01110101110001001111101000100100100111011011111110111101111011110000101000111010100111111111010001011000100011111000100001011010
00000000101001000101000000100000101101101110000010011111011111101010101010001110110011011101010010100101010100001100010100101110
11110000110001110010011010101011100000001110000001111111100100001010011001110001110000101001010000101110001000011110001100011110
00100111100000001101100000011011000000010010100101111001010101010110010101101101110111011111101100010101110000010011101110000010
01010011010010011111101001101111110101011101000011011001001001111011000001101101011010111011110100000100010001001011101101100001
00000000100000110110111100011110101011001001010000011110100001101101101001010111010000110101111010001110100110010010000111101001
11111111000110010001010100010111001001101111011000100110011001110011001010111010011101110010000001101011011001101000110101100010
00111011111000101111100010101000010110001100100011100001110111110101110101001011011010111110101101011010101110001111001110000100
11101001010111110000010011101011001001010110001010111111100110011000001001100100100101100001010000000101001010111110111011011100
01100010100010011110010110111001111110010111110111100111011110011010110101110011101100110100000111111100001001010100000011011000
11000101011000001101001010001101110110010001011101001100000001010101011101010001011000001011110100010110100001010011001000111100
01011000000001001100001000110010100000011110000110011111011111101111101010001011111011011001110010101110011101010111011100101100
01101100001100011111000100010110101111001100111100000011111011000101100010101010110001000110110011100110011011010001111000101010
10110010010010010000111111111010011100110111010111111110001110011010111100100110110011110100101011111001111001111000000111011000
10110011111111100001011010111010110100010101100011101101101111111011001111000010001010001011001101000101000001111111101010101000
00010110101010011010110101011101001100100001011000001010001100001100110100010111011000111111101001101000100111010100010011111010
01000000110110101010010011000111100101110110111101010010000000011001101101000001100011110011000111110011000110110001110010001111
11100010010011001101010011000100111001111011101110100110001011111001101000111010101100001000100000111010011111110110010110110000
00000110011010101010100011011001000010101001110010011110010010011001010100111101001100011100101010011100110111111000000011000101
01011100001100000101000000110110000001001100101000000001111001001101001011111111010010011110000110000111010110010011111100100101
00111110000101010010110110111000010001100110100110100110000010011110111110111101100101111100010011111000111100000010010011000000
01000111000010001101101011010111000110011110110111111001010011010101110101011011100100011110101101010000110111110010000110011010
10100100100101101000111011011101110010000001000001101010110100011000100010110101100110001101101000000100100110101110101000110111
01011010110110111110010111011001011011100110110010101010010011000100111001010011100111000001101001111010100001110010101101100000
11111100111111110100011100100001110100001011000000000011010000001101100001101101010001100001110110100110011001100111110110100111
10110001001010110110101001111001000010111101011101001001101011001010001001100001101011100110010110010100101110000000001111000011
00001100001110101110010000100110100001001000100000001011111011100111100011001101011100011011100000001111001111011111110000001000
11100111111111010011010011101101110000010101101011111100101100010011110111110011011010000011001100101001110001110110000101100100
01000100011100110010000100011111001001110111111101011001011010011111001101101100001110001101101111100111001010000111111110110000
10101001001101100001111111000100101100010111001001001001100101010111001010101010000011000000011001110111100100011101111000111101
00010001011111111100000000110101111011011111000101010101111001101101110101011011001001001011111010010010001010110000001001001100
11111111001100010110000101000110101100011100100100100011001110100101111110001000011000000101101001101110110101010001010101001010
00011110001100000000001001011100100001001001100000000011101110111111101011011101011101011001110010111011110111001100100101001000
11111111101000000100011101100100010100111111011101010111111111100111011111101010011010111111010111100011110000001001010111100110
01101111111000110010101101110101111100111011110000000001001010010111111010110100001110001000011100101010101000011010101110100010
11010010100100000111100101000011110011000101111100101000000011111100111000100100100011011100111011001101111000000101100010000000
10111001011010110001001001010110000010010001100011011110100001111001001101011010100011000001001011000010111010001001001101010101
00111000001000111011011100100110001011111100101100011111110100101010101000001111011000011001100010111011011101000100110100001100
01000011100011000011001100101001111001001111100011010100101110011000111011110101110100000101101000001101001010111111100000011100
11110101011111101101101110110110110101011100000101110001001011110111101100001011001011010110100001010010010011110011101010101011
01000110001111011111001100100100111001010110111100100111011010100111100110001011011001111101101000111010011001010100000101001110
00010111001100000001000001000100010110111110100000011000010110101000100110111010011100011100010100010011110100001001111100000101
11101101000111000111100100000101001111001010011000000001110001000101100000011000001011011010100001100110100011000011111010001011
11101010001000000010101101011111001100111010100100110110010110000010111010110101001110011100011001101101100110100100010000000101
10010110110101010101101011001110110000010000100100001101101111110111101111001011011011111001111001111000100101010111000110000100
00011001011100001100010100011111111000101100110010110000000100111010111011010101111100100010011111001101111110000101001001100111
10100001111000110111110010011010100001000001110111101001000010000001100011010010100101000000000001111000010011111001110011010000
01000100100111011101110110100011101110000000010111100010011110001100100000111001110101111110101001111110100111011110010001011000
01011011010010100100010011010001000110110011101011101000110011011110011110110000001110000011010100000100100010101111111000101111
11001110010000011010001110111011011011110101111011100101111000010010010111110111000100101011101111111001011000110100100001000101
10011111111000011011111011011111110001000001001001011010110110111110011101010111011011111111000100101001100111001110001111110110
01101000010001100110001101110000000101001110100000010111101011001010000000101001110011100000000110011100011010110000110111100011
11010111111000001100101011011101110110110011100111111000111001111111010100110101001100001010101100010001100110100111001010011101
11111010101010110110000000000110010101011010010001011101010011100111000000001011011000110000010101011000010000000001000111100001
10111001001011000000100111011100001110101111010100100111001010010011001000101110111111010100000011110011011100000000110101010110
10100111100001111000011110000010101111111000101110101000000000011111101100101010110011010011010001110110011001111101001110100010
10111010110001000000011011111010000100110101111010100001011101011111001010000100110111100001000000100101010001000111101111110010
01000111011111010001010100111101001101000110110001000010101001100100100110011111111110011101101010100101001010110100111001100110
11110001100100110001000101110111011011101111001101001000011001100100000101011010011001100110010110010010011011100001011001110101
10110011110001110001011111011011011110110111010011111100000011011011001100100010100011100010011111110101100110100011001100110100
00000100100101010001010011100001001010001110110010110110010110011000110111110100100101000000011010001101001111101100111010110001
11110101110111110001000110101011111100000001010111100010111111001100010011110010011110100010111101100110111010111111101011110011
11101010100001011000001101011110011100111110010010011111000100101011011000100110100010110100010010111001111101001100010111011001
01100101001111111101111111101001001110001010111101100011111001001111100001101011100100110010110101101010011111010001110101111110
00000000101000001111110001100010100111000100010110011101101100001000101001001111001001111100011011011010100110011000010111001101
11100010111000000011111111011011011110010111010111110111001010010110011100010011001010110100001111111101101000110101000111110000
01011000011110011001010001111101111000110111100111010010001100000010010011011111000000100100111111000001011010101100101011111110
01101001100001010111111110111000100100000111010100100011001110010011000000101000101010100011010111100100011100000111101101001000
11010110001000010110111111001111011010110111010111011111001000101111110100111011011101111110111011111000111100101000000011000110
00111101001111001000001010011110100001010001000000000001100110111111001010000001101111001001100100011111100011111111110110001001
01110000100011100001110110100001010010100100011101100110111100100110010011110011011110101110110101101011101000100011110010110110
00001110010111110010001000010001000001011000101000010101110101110111001011101101101100011001110000001111011010110111110010000100
11111001000000110010011011100010000100111010000001111111100110111010101010111100100011010000000001101101001000101110110100010111
10010110100100000011010001100110010110101011101101010100110111101101110111011011011000011101101111001001111001010100110000100000
00001011011100110010000111010101011001101001010011100111011000001000010101010010011100101000011110010011011100100011000000110010
11000101111011110111101010000101111110010000000101110100100000001101111101010000011101101111111100000010100111111100001001011100
01000100110111001000000010011111100000000000100001000001110111100110000011001001000010001110000100000010100111010111100010111111
11001011000101011101101100110001011001111101011111110001011000010111100110101010110110100110000011111111011000000001111101100011
10111110111011010111110011001101001010100010101111001110000110100110010000010010011010000110101000101000110000101000011100110100
11101100011010110111000111010101001100110010100110110111010001000111010010001000001010011001110000111111111100100001110100001111
01000101101111111101110111101011111110001111010111101000001000011100110100110011100101100010111101010000110011110110100011110100
11111001000000101100100101010101001110101011101001001000010001100011000100011010011011010111110111010010100000000011001110100111
11000101101010111101100100000111101011001011001101000000000000001101110001011010011100101110111000110010110111011001011001111100
10110010011001011010001011100010110101111100101001011101100101111011101101000001110000101001100000001100101101011111000100011000
00000000111010001110111000000010100111111110101100011000000011011110101101001101100001011101011010010000000111111110000100001010
11110001001111100001001000110011100001001110101101010001111011010101000011101000101010001011110100000110001011010011101010101111
00100001000011110000000001010110100001001101000000000110110010101000001011111101100110111101001010001111001111111000111111010011
11000000101000010101000000100100100011001010100001000000010001100101110011011000001000011111110111001010001110011000110000011100
01101011011111110001001011011110010111100101101000110101110111110011001111010010001010000001010100001001001010111111101100010111
11100101111110011101001010000111111101010000010101000001110111000101110011011010011010110011111100100101010011111111101011101100
10000011111000001100111110101001011110110001001011111010000010011000110100110110100001110110101101110000100001111110001010011010
11100000001101100001010100001100010100101001011110110000010100110000110000100100100000111011101100101011001101011000001011101111
10110001100110011101010111001111110111100000110100101101001111011101111100111110001011110100111100100000000010010100011111011100
11101001001010000010110110100101010010111010100001001000110011101101001011100110101001010101000111100111000011110010010110000001
00001000110010101000000010011010100001011110101000000001100111111000000011001101100001001001011000000111001111111111111110101000
00010111101010001100101001101100110010110001010111101011101010011111101101100101011010111111101111010000110101000010001111100011
11111000110111110111010000100000001101001110110000100010001101101000000010011110100001100010010111001111001011011010111011110001
11111110100011110011010111001010011000100001000011001000110100101110010010110010111011101010000101101001100001001111011110100110
01000100000101101011000000100000001101001111101000000011111111000110010111111001011110000001011010011101011111011101101011011000
00011000101000001100110101010010011110100100100001011110001010101010111000111110001101010100010011111011100101101000010010111011
11101011110111011101111010001110111100010001011001000001011101011111100000000100100010111011110100100111100101010111001000110111
10110010111000100010100101110110010111011011100000011101010011111010101100001010011011010101011011000011110101001000000110010100
10010000111010010101001001100110111111011101110001011100001011100101101111011010011000100101101000000010011111111001100011001100
11101011111000101001111110101001101110111110100111111001011001100010001000011010100010000111000111100010011001001011011110111010
00001100000100010010110100010111001011000011011000001110110000000100110000110110011100111111111100111010110110110000010011111100
11101111111011111011010110011011011100110001011111100100000110010000010111110100111110110110001111001101100011101111100110111110
01001100010111111001110010000001111010000010000010100000110000010100010011110010111110001110000100000011100010111111110000111110
10100110101001010011000110001011100101011000001111011100000101101001000111110001000001011011100001011100110100100011010110011011
01100101000010011111101010001101101100010000000101101001010100001111110000100001101101011011101101111110100100010111000000011000
10001011111010000001101001000101111111000000001110010110101000111111000001010011100101001010000001010000111010001011011111001001
11000101000110011101011100100011111001001111010101000100111001001101110011111000110100110011110101110110011011111110001011111000
11001001101000010110110110001001011110000011011110111110100011100000111100110010100111110100000011111101101001111000010011010000
00010101011010100011001000001111111011001001001000011000100111101001111001000011011001001001110000101110001010011100100001011100
10011110000101011011110100101100010110000001000010110000101111001011101001100001011101111111001000111000010101011111011110100111
00000101010011001111010100001101101100000000100000110111101110011010101101110000100001101001111101010000000111111001010100001000
11010111111101011101111110101101011011000001011011000100111001110101001101011010011010101111110001110011111000011001001101101001
10011100100100011010110001000111011010001001110101001110110010101000010100010010011101011101111100101011110001110000011011001001
10011011011010100011011100111111110011110000000000101111000010111001101010000010011000001001111010001111010101011000100101011100
01100110010101101110101011001101110000010001101111100001010100011100110111110101011101111011100100111101110011010111100011100100
10110110001000000111101011111110011011111111100101110000001010100011111100001111011010011100101010011000111000000000000110000100
10010001010001110001011011011101011101110110001010011010101001000011010111000001010010011101111100100001100101000111001111000001
00000101101000011101100000100101101011001110011101010110100000001001100001111011001001111111110010111100011110010000110001001100
01111111100110001011101010000001111100001011110101100001101111111011010010000000111001000011101100100110101111001010111111001010
10010100110001001111100000001110100111000011100111101011011010111101001011000111100111001100001100101001000011111000111001110000
10001111111110001111111000000110000010001000100110100010110010110110011011101110001111010011000001001110111111101001111010011001
10000101101101011110110100000111001010100001011101010110011010000101110010110010010100110110110001110110110101111000110001011100
10101001110101101001010110001110001100101011011000111100000111011001011010110110000111100000010001100111001010011101111010010111
01000010010010001110010011111001000010100100101010100110010010010010111101110101100100011100000010001001001100101110110011010111
11100110000101001000010111011011111100010011000100100001010110010010110110100100100101001011100001101001100000101011101000110010
11001001101101000000011010111111100001111010110100101001101010000110110001110110100011000101101110101110101011010111000110001001
10111000010100101011010000110000000011101100100010011100100111110000011111011101011011101001011010001011011011111111110100000001
11010100100011000011110111110110100000000110000100100111101110110101111011010010101110110100110001010000101001011111010100001001
01000010010000100101001100110101010100101110100000010001010100110110100100000111001100011001001010001001011101110010111100011101
11111011111011110001101101010010011110101111011111100100001001101000000100110010110011100100010111100110101011001001011111010101
11111110001100000110001111010110000000111000111101000001001011000111100100001000011001111100101000111010110111000101100001000001
00010110000000001110001011111100010110110111111110100110010010110011101100001111011000111001111010011001011110001100000101000100
11100101100011010011110111000001111110100011011111100010011010010000110100110000110111010110011111110110101011101000001011110111
00000000010111100000010010001011100100001010101001101000100110011000000011000101100101011001101100001000000011100111111000000001
01100101000110011110100010001001101010000011000101000101101000010101110101111100101100111111101100010010100011110111100010001010
00010110110001011000000101110101011001101100010101011111110011100001001010001101010100010010110011100001100101001111100101110101
10110111110011000101110101000001101101000111000110110110000010010000111011011000110001100111000110000101100100001000110010001010
00100011100110111110110111101001011110010111011110100110001000000010110100110111110100111100001011111001111000101000010011011000
11101011001001010101000111100101011100010110011100100001011101100011110110000010101010010110111101110101001000000111101111110000
11111110011101011101001011000100011111111011100100000101010001110111111110001010011011011011101101010010100000001010101000111110
01111011011000100010110011001010000010100010101111111000000100111101011101010100100010000111001101000111101000100011101100010011
10011010010011111010010010111011100001010011111010100111111110010000001010100100110010101001111000101101011011100111101111011100
01111101011001010000110001001001101010100010011011001110110100001100110000110000100100010110110001101110100110000000010000111010
11110101000000010110011110111001001100100111010110000110001100001101110100110011110100111110110000111100111101100000010011100000
11011111111011110111111100001010011110000001010110111110000110101110111000010010100111110100011011101000100100111000000001011000
01100111100110011100101101001010100100010110010110101001011011101101100000001001100010000110000011000010110110010001011111100011
00011101001111110010011111011111010000011011011001010111011100010111110101001010001000111101100000000011000011001100101000111101
11011001100111011001110100100001010101101110011011110010011101001000000111111101110110110010010111101101011010101000111101110011
11100010101110011101110101100110001110011100010100100010001010101110100000001111111101111110101111010010111101110000010100000110
00110000110100001111000000101011110100010110100111111001111111101001111101001111111001011111011101011101000111111110100101100111
10111001010110111010010001111100001111110101011000010111011100010010101001001100010100100010111110010010010101100110100111110110
00011100010101101110000010001110000001011000101000010101010111111011001011011101011011001001011010001101011001100111101110000011
01101001100111100101010100001000000100001000111001100000110100011110000011110100100111000011000100000110100111111111111000110001
11101011111101101001011111101000011111110111110011100001011101010010001010100000100110100001101100100101100000000011101100011001
00100111001101111100111001100000001111011100101011010011001010000100001101011110001100010100001000111001101101001100011001100111
10011010101110101110111001100111100111011110111111010011000100100110110000110011001010100011010011000010111101111100101101000101
10101001010111110001000110010000000001111010010001100101010001011111001010100000100010100010110000000110000000000011101101111101
00101110100100010010111111010000001100111011011110101111011000001011011100000100111110111110100011100111010100000000100101010011
01100101001011110101011111000011101110001011001101101101001110001110110001101000100111100100101101010110100110110011011011110011
01000001011110010011010111111011101001000111101011110000111110011000010011110100100101010011001000100101001110111010011000110011
11001100101111101111000010101100100001010000100110100001100011100101010001101011110111000000010000010110000010111111000111100100
11001100100100110001110111111101011011100110010001000010111000000111010010110010011100110110111000111011011111001001111001011100
11000001000011011100111110000001101110010011000101111000101011001100100000101010100100100110110101110110100011011011001001111011
01101101001111110101001001100101001100011010000101000111001111100111100000001010101001111011101100011110111010010101100000010010
00000111001011011000101010001100011000110010101111100101100010011111111001100101001110011101101000100011110111010110001110001000
11111001011011101001100111001011011101111001101010110101000111111011011010100000110110000011000101100101000010110001011100010011
00100010101100010110011111001001101100000010011000110011010110010101110010111100110100111010101011111101011110001110111011110000
01100001011110010100100101110011110110101001011111000001111011000000000001001110001100101111100101100110111010010101100011101111
10001011011001110000010111011011011010101101111111111110000011011000111111110100100101100100101011101101000100100100111111010101
00010000001111100110110001111000100011110100100010101110010110010010111111110101100101011001001000011011001100101110110100000011
11100101111010110100110110101001101110100001100001110010111010011000110100110000000101010101001100100011100110111110111000010011
01000100100000011110000100100010001011101110101110000111110010001110000000101101010100111101110010111111011010010000010111001100
00011110011000100000011001000100100011110010101000000111110010111001001111001000000000001001011000011010000100001110110100000011
01000110110010111111100011000111101010100010011101001110001100000101110000010000011000011101111101111001111010010001010001110110
11110001000111001101001000100000100101001100000001100001101111111000001011101011100010001011000101010110001111010111111100101011
11010011110110110000101010110101110011110110101100010000001100011111110010011101101010001110100010110111000111001010101011101010
00011010100110000010000111110001000110111110111100011010001100101010101100101101100100111001000011011000011100000010110111000000
10101111110011000001011001010000000000111000100001011001000011110001101001011101000011010001010110010110100111110010001110000011
00111110111011100011101010001111000010000011100000000100000110110111010000000001011011011101101010001010110011010100000110001000
11100001111010011110111000110001100111001101100010111001111011100001100001101011011001101011010101000110001101011011101001101100
01000001101010111110101100100111111010011001000001001110101010001101110000010111000000111111101101010010100111110111001010001100
01101111000101001100101001111111011000110011000101100111010001100111110110001001011011011011101000110100110101110001101010001100
01101100101101010001001111101111011001100111011110010011111010100010000010100010010101110011100000101111011000001100110111100010
00101100000111010000010010010001001100101010101000001011000110010011111010111100100101000010010001101111100110101110010011011001
11111111111110111011101111100111011110000001011101100000001001110100010100010010111011100100101101010100110011000000001111110001
10111110011100100011100011011110010101110011101000101100100101110010001110010010011010011101001001001001110010000100001100000101
01000001110001111101110100100111111111001111010101110101111101000101100000100010100101100110110101110110011101010111101001111000
01000101100100011011110100100110100011101100100111011010100010001100100001111111001101010101011110001011011111011000011011111000
