00000001100111000100100000100010011001001101110110000101111011001000101001101101100101100110011001000011011100010010110011011010
11110111110101101100100001011000010110000001011111001100010000011110010101010110111010010011100111000011100111111011001000010101
11101100000100100101001000100110100100111110101100010001010101100101000010001010011000011001110010100010011100011101110100010110
11111101111101100111001011001000100110111010100000111001000011010111000010110000100110000111101010000111100000001011101010010101
10101110101101100011010011110000111101101100100000110000001100001010011011101110110110100010000010101101001011001110110000101010
11100101010101011100110000101011000100101111101101001111101000000110110010100101100111011011110101110001011001100111000000111000
00010110010010101111110011000110111000000101010111110001001011011000100101011101111011011110000001111010010110010000101110011011
00010000000111110110111101010101101111101111111000100010001011001111111100111011010001100100101010010010001001101000010101010001
10101001110110000001000110111001010000000101010011111000101100111000010101110101110111010000001001001101000011101011001000010001
11100011011110001101111010101110110100010111101111111001111001110101011101000011001000001011001110001100000010011101101011100101
10011111000111100011111110011010011001000100110000100110000110110011011110010110010110111000110010101011001000111001110111010101
10111000111001000011010110011010001101001100101010111010110110011000011011110110100111000000010000101101000011111110110000010011
10101111010011110000101111001101011110110001011101101100000010010111011100100010001110100100101001100010100110000101001011010010
11101011100110110011000111010011111100001101010101110000101110110100110010111000011010010010000111110100010011010101000111111010
10111000101011011110101100001001101100101010110111000110001000111111000101010111101101000000010001011000100111011000001100010000
10011010100001100010011101110010000111110100110010111011010100010011001010001111100001000000010010101111001100001110010110000111
11100010011001101011111111010111100011101011110100000100001100111000110001100000110101000101100001011110010110110011010011011101
00011110101010011010111000100100010000110100010110000110111100100110111101001111011001111111101011001000011111000100010111100000
00010001111011110100111010011011100000010010001011111110011100000000001001010110010101011001001001000010100100000010011111110110
11001110010000000011111100001010110101001011110100001100111101111110111101110110110010101111000100011101110001110111000110100111
10100001110001111100111010100011100111001100100011101100110001010101010001110000110000001011111000000101100000011111101000111000
01000001001110011001101101101101110111011010001101111001100100010101111101001111101110011011010100011000100011011000100001110100
00101110001111001111001011011011110100010001011111101100100110010011111111100001001111011111101000111100111100010111100010001000
01110011000110011101100010000111100000010101000111000101111111100101000101000000011011001111100101110110110001010001001101011001
01101011010101000011101000110110101000110001010000001001011111000111000010001110100011100101001011000101000101010111001001001011
00000110100000000000000111101101011010000111001101110110001010000100110100111111011101011101101011111000110000101100010010100000
10111011101010001100110101010011100010100011110111100101101011010100010011100010010001010111010000010111010000110101010110001101
01101010000011101000011001010010010101010111110001011000110111011010101111111101101011000110010111011011001111101010010110100111
10100110001100001111110101100101101100101110101110110110000100100100111000011011011101011101111001111111111110100100010100011000
11000111010111010011000011011101010010100000110011111000100011111000001101110100000111100110001010001100011010101011101011011101
00100011001110101101110100010100111101110110011001010000011100001100100010111000001010001110101000001010000000010100011001011100
10000111111010010010101011101111110000010101111110111101001110110111101101100111011011101001101010110000110111110110001001001100
00011001100000001101000000110110001001111111000011010001010101101101000011001001001001011001011111011111011110100001110000010011
00011000110011100000111000110010010000101100100010101110100101111010010101000101101010001111000111001011000100110010101100100001
11111000101111101001110100011100001000001000100111100011101011010111001010001001100111011011000101100110111110100100110110011101
11101111000100011000000110011010011101110010111000000011000100010110100010101000110111011110100011111110111001010110011101101111
00000000010111011100110001010111100000001101100000101101100000001001110111111101001100001101111010010111010101101111110000100010
10100011011001100101111011001100110100010001011011101101001111010001011101000101101011000101011101100001100100000100101110000011
11100010101010110010111101110010011010100111011110110111101000100010110101110111100100110100001011111000011100101100010101101100
11111010101010001111001101000010110110011000001111101110101011100101101000010101100110111011100010011001001011110101001001010000
10101001111101001010101011010001000111101011111000000011011100101000010010110101101101110011111110100111101111001101000001110011
10010111010100101001111100110111011111111010011001010110010100011100110110111001011101001111010110010010101001001110010001001101
11111011000101100111110111010001001100110110000101110001010011010011001010101010100111000000000011110111100000101101111100110101
01000110000101000000111001110111001001101101111010001001101100001100000111100001001110111011011100111010011110110011000101101110
00001100100000100010001101110011001010001001011100010010000110001111100001101101101100001100010010111110000111101101110010000100
11010110101100010011001110111110111001111011101110010111011100100011101110000010011000111111111011101011011001010100000111001100
11010001001111000101101100110000101111100100010001100111010111001101100010001010110010000011100011000111001110010110110100010100
01101001111110010000001011110101011011010110111110100000111110101001011110010111001111111010001110001101011000000100000101100110
01100000000000010001001100100101011011100111011110010110011000101010110000000010010111100110010010111000011001011100000001111100
10011001000100011111111010110010101011000011010100111111000010100000111000101101011011000011000100001101111010111000010111001001
10110011001111110100100101101100001011110111111000001010111100100111010100011011111010010100000101111000100000001000000001010111
01101000100111010000100001110101001000001110100100001011000101001000100010111100100110010110100111111011010110111100010010100010
11110100101110000011101111100111000100100110100101100001011010100010000010101010111110000110000011111111011101000001110110100001
10011100011011110011000110011110101001011001001001010100010101010101001011101000010111000001010100101101000010011111101001101001
10010000110011000001110110001010010110000101101110101110001011011010000111110110100011000100011100100101100110101000011011111000
01101111110111111111000110011111011111100011010011101000010011010101010111110010100000100010101101010001101011111011001000110111
01111000011111100010001010111100010101111110100000111101100101111001001011011110011010001001001110001001001011111111101100110111
10111010100010110110111111011111111011010001011111101110001110111110111100010010011001111101000101001010110001110100000111110001
01111011110001100011011001111101000001110110110001100100000011100110000111010100001100111000001101111011011011001101100100000000
00111010011001100010011111111100011110110100111010101100010110111011001100111011001000101100001011101100000000001100101101110111
11000010111000010111010000100110011100111111100101011001101111100001111010001011011001011001111100011000111101001101100001001010
10011110011111000001001011011000010000110011101011100100110100110010001100110100100110001011001100000000101101101111101110010011
10010100110111101000000010000001100010100101100000111001101101100101011110101101110110100111000000111100100100111011110010101000
10011010010000100000011011001110010011110100101010111111110101111010011111010100001010010001001100101111111000111011101100110101
01110101110001001111101001100100100111011011111110111001111010110000101000111010100111111111010001011000101001111000100001011010
00000000001000000101000100100000100101101110000010011111011110101010111010001110010011010101010011100101010100001100010100101110
11110001110001000010111010101010100101001100100011111111110100001000010011100000010010101001110000001101101010010010111101011110
11110111000000001101100000000111000100111101101101011001100101111111100001101101100111011111101101110001110000000011001010000011
01010011010010011111101001101111110101011101000011011001001001111011000001101101001010111011110100000100010001001011101101100001
10011001100000010100111100010110101011001000100011011011100001101000111001010111010000110101110000011110110110010010010111010011
11101001000110010000010100110110011001101101011101100000100000110111100010001010110111110010000111101011011001001000110001100010
00111010111000101111100010001110111011101000100001100001110011110111110100000011011010010100101101001010100110001111000110001100
11101000001011111010010010101010101101011100101010110111100110011000001101100100100101101011010000000100001110111110101011111100
00100010100100011110010110101001011110000111110111100101011110011010010001110000101111100100000111111101011010010100010011101000
00000101011010001101001010001101110110010001001111001001110101010101011101010011011000001111110100000000100001010011001000011100
01011010000000101000001000110010100100111110100100011111011111101111101010001011011011011101110001111111011101010111010100101100
01101100000100011111000100010110101101001000011100000001111011101101100010101010010001000111010111010110011001010010111000101000
10100010100101010000111111111011111100010011010110101110001110110010111110100111111001110100101011111001111101111100000111001000
10110011111111100011001010111110110100011001100011110101111111110111001111010010001010001011101101000101000001111111101010101001
00010110100110011110110100011111001100100001011000001010001100101100110100010111011000111110101001111000110111010100010111111010
01000000110110101010010011000111100101110110111101010010000000011001101101000001100011110011000111110011000110110001110010001111
01100010010011001100010011000000111001111011101110100110001011111001101000111010101100001000100000111010011111110110010110110000
01000100011111101000010001011011010010100001010011111000101010011001011101110101001100011100101010011100100111111000000011000101
01001100001110100111000000110100000001101000111000000001111001011101001011111111110010011010000110010101000100111011111100100101
00111110100001001110010100111101011001110110100010101110000010001110111110111111100101111100010011111011111100001010010011101000
01000101000010011111101010000111000110011010010101101001010011010101110101011111100100011111111111010000110111010000000100101010
11100101001101101010111011011101000010001011001101101010100101011101100010110101100100001101001100000100000100101111101000110111
01011010110110111110010111011001011001100110110010001010010010000100111001010011100111000001101001111010100001110010101101100000
11111100111011110100011100100001110100001011000000000011010000001101100001101100010001100001110110100110011001110111110110100111
00110001011010110111111001110001010010111100010111001001101011001001001001100001111111100100010111010010000110000001001111001011
00111100000110001010011000100011100001001000101001001001111010100111110011101101111110011011000000001101001111011111110000000001
01100111111111110001110011101111110000010111010111111100101100010101010111010011011010101011001100111001111001110110000101101101
01000100011100110010000100011111001011110111111101001001011010011111001101101100001110001101101111100111001010000111111110010000
00101011101101010001111111110100101100111110001101001001000101011111001111101111000011000010001001110111100100111011011100111101
00010001011111101100000000100101111011011101010011011100101001000011110101011011001001101101101010010110001010110100001001011100
01111111000100011110000101000110101100010100100101000001001010101101111110101100011100000101101001111111110101011001010101100010
00011110111000000000011000011100100001001001100100000111101110111101001011001111011001111101100010111010110111011110110001001000
11111111111000000100011101100000010100000011111101011111111111100001011110101010011110110110010110100011010000000000011111100111
01101101111000110010101101110111111100111011110000000001001010010111111010110100000110001000011100101010100000011010101110101010
11010010100100000111100101000011110111000101111100111000000111111100111000100100110011011100111011001101111000000101100010000000
10110001111110110001101001111110111111010101110011111100100001111001001001001110110011000001101010010110111111101001001100110100
00011100111000011010010100000110100010111110001100011101111100101010101000001110011010111001100010101011011101001100110100001110
01000000111111110111001010101001100001000111100110110100101110001000111011111101100100000001101000001101011010111101100000001100
11111101011111101111101110110111110101011110010101000001001011110111101101001011001001000110010101010010110011000011101010101011
01101110001111101110001111100100111101010111011100100111011110100111110110101111011011111101100000111010011000010101100001100110
10110100101100001001100101001100100101011111010000010000010111011100100011001110001100011100001101011001110000001100110100010101
11111101011111000111100100010001001111011010011000000001110001001111100001011010010011010110000001000110111111000111111010000011
01101110001001100000001111011111001100111010100100011111010010011010111110111101000110010100011011101001110111101100010000000101
10110010111100000101101011001100110110010001111100001101100111100101101001001011011011111001111001111000110101001110000010000100
00011001011100001100010100011111111000101000110010110000000100111010111011010101111100100000011111001101111110000101001001100111
11100001111000110111110010011010100101000001110111101001000010000001100011010010100101000001010001111000010011111001110011010000
01000100000110011101110110000011100010001000010101100110011110001100100010111001110101111110100001111110100111110110011001001000
11011011111000100100010111011001000110000011111011101000111111011110011000110000001110000111010100010100100010001111101000101111
10001011010000011010001110111011110010010101111111100110111001010010010110100111000000100011101111111001011000110000101001100111
10011110110000011011110010011110110000000001001011011000110110111110001101010001011011111110000001101001100111001110001011110110
01101000010001100010010101111000001001001110111010111111111011001010000001001001100111010010000110000101001010110000110111110000
11011101110000010110101011001101010110100111001110111000111000111110010100110001011100001100011100010001100110100011001110111111
11111000110010110110000000000100011111011010010101000101010011100011000000001011011000010000010111011010110000010101001111100001
10011001001010000100110101011100001110111111010100100110001110010011001000101010011111000100000011010101010000000001110100000111
10100111100001111000011110000010101111111010101110101000000000011111101100101010110011010011010001110110011001111101001110100010
11111011110101000000011011101010000100110001001010100101011101111011001000000100110111100001000101100101000001001111101111000010
01000111011111010001010100111101001101000110110001000010101001100100100110011110111110011101101010100101001010110100111001100110
11000001100100110001100101110111001011101111111101001000011001100100010100011010011001100110010110010010011011100001111000010101
10101011010001010011111111011011011110111111010001111010010011010011001100010111100011100010011111010111100010100011101100010100
10000100000101010101010011100001001010001001100010000110010110011000010101110000100101001000011010011111001111001100111010110001
11100101110111110001010110101011111100000001010111000010101111101100110011110010010110100011111101100110111010111011101011110011
10111010100000011010111101010100011000111110010000011111000100101011011000100010001110110100110010110001111101111000010111001000
01100101001111110101111111111000001010101110111101101010111001001101110001101111100100110010110111101011001111011101110101111100
10000000101000111110110001100010100111001100110110111111101101101000101011001101001001111100111011011000110010011000000111001100
11100011100000000011001111111001111010010111110110110111001011010110011100010011001110010101101111111101101000110101000111110010
01011000011110011001010001111101111000110111101111010010001100000011010011111111000000100100111111001001011010101100101011111110
01101001100111010110101110100000010100100111010101100001001110010100100011110010110010100010000011000100001100110011101001001010
11010110001000010101011111001111011010110111010111011011101000101101110100111011010101111110111111111000111000001100000011000110
00111110001011001000101010011111100001100101000000010001101110111011011010001001101111011001100100011111100011110111100010001001
01110101110111110000000000101000110101100100111101100110001000100010010010110111010110101011110101100011101000100000111011110110
00001110010011110010001000010001000001111001101000000101110111110111111111001101101000001011100000001110011011010111110011001101
11111000000000100010001001100010000100101010000101111111101111110010101110111100100011110011001011101101001000101101010100110111
01010110100000001001010001100100010011111001101100011100011111101000110111011111011000001111101111001001111001001100000000100000
00001011011100110010000111000101001001101000010011100111011000001000010101010010011100101000011100010010111100100011000000010010
11000101101011010111101011000101100011010000100101110100101000001101111111000000010101100111111100100000110110111101001001011100
01000100110011001001101010001000100000000110100001101001110111100101000011001000001010011110100100000010100111011011111000101111
11000111101101011101001100100101011001111101011111110001011101010101101110100110110100100110000011110111011000000001111101110001
10111110101000010101111101001101001110110010101011001110000010000110010010010000010010010011101011101000100010001100011100010101
11101100011010110111000111010101001100111010000110110101010001000011011010001000001010101001110010110111111100100001110100101111
01000101101111010101111110101011111110001011010110100000001001001100110101110011100101100110111101110000110011110111110011110100
11111001111000001100100101010101000110101011101100001000010001100111100100011010011011000111010111010010110000000001111110110111
11100101100010011100101100000101101001001011011101000100100000101101110001011010011100101100111000110110100011011001010001111100
00111010010000001011001001101010110101011000101000011101100101111011001101001001011000101001111001011100100100011101100101011000
00000100111010000110111000100111100111011010101100011010100011011110111101011101101101011101101010010000000011111110010100101010
11011001011101100101000000110010000001001110111111010001111011010111000001111000101010001011110100000111001011000011101010001111
00100001010010110010000000010110100011001000000001001110110010101000001001111101100100100101001010001111001110111001011111011011
01000000001000010101100000100100100011101110000101000010011001100101110011011000001000000111110111000010001110001001111000001111
01101001011101110001011010011110010111110101101000110101110111111011001111010000000010000001010100000111001010100111101100000111
11101001111110001101001010100111111101011000001111000001101111001101110011011010000010100011110100100101011111111111001010111100
10000011111000011100110110101001011110110001001111111010000011011000110100110110000001100110101101100000100001111110001010111010
11100000001101100001010100001100011100101001011110110000010100110000010000100100100001111111001100101010001101011000001011101111
10110001100110011101010111001111110111100000110100101101001101011101111100111110001001110100111100100000000010010100011111011100
11101001001010000010110110100001010010111010100001011000110011101101001011100110101001010001000111100111000011110110010110000001
00001010101010001111001010011000100011010010101000000001100111111000000001001101100001001001011000000111001110111111111110101000
01010111101110011100100001001100110000110101010111101011111010011101001101100101011010111111001110110000110101010010001111100011
11111001111110010101110000110000100101101100100000100010001101101010000010011110100001100011010111001111101011001010011011110001
11111110100011010011110011001010001000100001000001000011010100011110010010010010111011101010000101101001100001100111011111110110
10000000000101100011000110100001001001000111111000010100101101001111101011001100011100000011011010011111011011011011101010011000
00100000101000001100110101110010011110001001100001011110001010001010111000110110001101011100000111001011000001101000010010011011
00101111010111011101101110001011100100010011011001110001011101010111000000001100101010111111110101100110100101000111011000111101
10010011011010100110101101111110010111011001000000011101010111111001101100011011011011000101011011000000010101111000010110000101
10010010111010101101101100100110111011011101011001001100001011111101111111011010011000100101101000000011001111111001100011001110
11101000111000101001110111101001110110111110100111111001011001100100001010001010000110000111100101000111001001000011011010111010
00000100000100010011111110010111001011000001011000000110110000000110010110110110011100111101110010100010110110010000010011111100
11101111110011011011111110001011111100110010011111100100010110011110010110110100111111010110000111000101100011001101010110011110
00001100011111111001010010101001100010000010000000110000110100010100010011110000111110101010100100000001100010011111010001111111
00100110101001010011000110001010100100011000001111011100001101101001100111110001000001011011100001011100110100100011011110011011
01100101001010010111101010001101101100010000100101000001010100011111110000100001010101001000101101111010100110010110010000011010
10001010111010000001101001000101111111000000000110010110101000111111000001000011100101001010000001010000111010001011011111001001
11000101010110011011011100100011111001001100010101100100111000001101110011000000110100110011111101110110011011111110011011111010
11001110101000010110110110010000011110010010011110110110100010101000110100110010100101110101110011111000111101111000010011010000
00000101011010100011001000001111111001101001101000011000101010101001101001000011111001101011111000101011001011011110100001011100
00011110000101001011110100001000110000010011000001110001101011001011101000001011011111111111000000111010010101111101001110100111
00000100010011001111010100001101101100000000100000110111101110011010101101110000000001101001111101010000000111111001010100000000
10010111111001010111100100000111011001100100010001000100101001110101000001010010011010101110110100010010111010010001001101100001
10001100000100011010110011000111001011001001100000011110110010101010110100010010001111100100001100101011110101001000011011011011
00111110010010100111111101111111110011110000000001101110010010111001101100000110110000100001111000100111010101001000110101011110
01100110010101101110111010011111110000010101011111100001010100110110110111110101011101111010100100111101100011110111000011100100
00110110001000000111101001111110011101110111000101110000001010100111111101011111011010011100101010011000111000001100000111001100
10010001010001110001011011011101001101110110001010011010101001000011010111000001010010011101111100100010100001001111001111000001
01000001000001111101000000100101101011011110011101010110110000001001110001111101011101110111100010111100010110010100010001001100
01111111100110001001101010001001111100001011110101000001101111111011010010000001111001000011101100100110101111001010111111001010
10010000110001001111100000001110100111000011000111101011011010111101001011000111100111001100001000101001000111111000111001110000
10001111111100101111111000000110000010001000100110100010110010110110011011101100001111010011000001001111111111101001111010011001
10000101101101010010110111000111001010100001011101010010011010000101110100101010010100110110101001111010010001001000010001010100
10101001110101100001010110001111001000101011011000111100000111011001111010110110100111100010010011100111001010011110101011010111
01000010000110001110010011111001010010100100101010100110010010011010111111110101100100011101000011101101001001101100110011000111
11100010000101010000011110000011001100100010000000100100011110010110110110010101100101001111100101111101100000100111100000110010
11001001101101000000011010111111100001111010110100101001101010000110110001110110000011000101101110101110101011010111000110001001
10111000010000100010010000110100010111100111100010011101100111111000011111011101011001101001010010001011011011111001110100000001
11010100100011000011110111110110100000000110000100100011101110110101111011010010101110110100110001010000101001011111010100001001
01000111010000100101001100110101110100101110100000010001010100110110100100000111001100011001001010001001011101110010111100011101
11111011111011111001011101000000011111001110010111000100011001101000000100010010110011100110011111100111101011001001011111111101
11111100001110000110101111010110000000110001111100000101001110000111101100101000011001011100001000111010110111000101100001001001
00011110000010101110001011011100010110110111111111100110011110110001001110101111011010011001111010001001010111001100000101100100
11100101100011011011110111010001111010100011010111100010011010110000010110100000110111110110111111100110001011100000001011110111
00110000010111100000010010011011100100000110101000101000100110011000000011000101100101011001101100001110000010110111111000001001
01000101000010011110100010001001001010001010000100001001000000000101110101111100011100111110111100010000110011110111100010011010
00010110110001011000001101110101111001101100010101011111110011100011001010001001010100010010110011100001100101001111100101110101
10110110110011000101110101000001101101000111010110110110100010010000111011011000110001100111000110000001100100001000110010001010
01100010100110101110110111101001111110010100111110100110001000000100111100100011110110110100011011010101111000111000010011011000
11101111000000000101001111110001011100111110011100100010011001010111010010100010111110010111110100110100001001000111000111110000
11111110011110000100001001001100011100110011110100000101011001011001111110001010011011010011101101100010100000001101100000111100
01110011011000010010110011111010001010100010101111011000000100111101011001010100110010100111101101000111001000100011101100010011
01010010011111111011000010101000101001010010011010100111011110011111001010000101110110101001111010101101000011111110101011011100
01110101001001010000110011001001001010100010111011000111010100000100110000111100110000010100110101101110100100010000001000011010
10110100000000010110011110111000001100000001010110000100001100001101110110110011110100101111110010110110101101100000010111100000
11011111111011110111111101001010011110000001010110111110000110101110110001110010110111110100001111100000100100101000000001011000
01100111100110100100000100001010110100110111010101101001011011111101100000001101010000010110000011010010111100010001101001100011
00011101001111110010011111011111010000011011011001010111011100010111110101101010000000111101100000000011000011001100101000111101
10010001000100011011010100110000011101101110011011110110111101000000000011111111110110110010010111101101011010101001111101110001
11110011101110010110110101100010101100101100110110100010101010001110101000001011101101011110101111010010111100010000010101000111
00010000100100000111110000100010100101010100100111100001101111111001101101001111101011111111000101011100100101011110000101101110
10111001010110111011010001111100001111010101011000010111011100010010101001001100010100100010111110010010000101110110100111110110
00110000010110101000000011011110000001010100101000010101000111111011001111011101011011011001001000001101011001100111101110000011
01101001110111100101010110001000000101001000011001000000110100011110000011111100100110000011000100000110100111110111111100110001
11101011011001101001001011101000111101110011111111100001011001010011001010100000100110000001101101100101110100000101101100011001
00100111001001111101111001100000001111011100101011010011001010000100001101011110001101010100001000111001101101001100011001100111
10011010101110101110111001100111100011011110111111010011000100100110110000110011001010100011010011000010111101111100101101000101
11001011010101111001001111010100001001111010010000100101010001011011001010100000100010100010010001000110101010000011111101111101
00100110110100110010010111000000001100111111111010001111111000001010010100100110111110101100100011100111010100000000100101000010
01100011001011101001011111000001101100011011001100011101111110000100010001101000100111100100101001010110101110110011011111110001
01010101111101010011010111101001010001000011010010110000101110011000000001110100100101010111001100100101001110101011011000110010
11001100101101101111000010101100100001010000110110101001100110100101010001101011110111000000010000010110000010111111000111100100
10001101110100110001110101110111011011100010110001000110010000000111000010110010011100110100111010110010111111001001111001011101
01000001000111111101111110000001100110010010000101000000101011010101000000101110100000110110110100110110100011011011001000110011
01100100111101110101101010000101110101011110000001000111000111100101100010011000110011111011101111011110111011110110100001111010
00110111001011011100100010001101001100110000101111100110100011011111110100100100011110011100101001100110110110010100001100001001
11111011111011100010011111000111010100011001101010110001000111101010011010100000111110000011000001100100000010100011111101010011
00101010000000010110011111000100101100001110011000110011010110000001110010101000110100111110101011111101001110010100110011110000
11000101101110010101100000110011111110001001010101000001111011000001000001001110000000101110100101000100101011010011100011101110
10001011111011100010010111011011011010101101011110101110000010011000111110110100100101100100001000101101000110100100110111010101
00010010001101100010110001111010000011110101100010010111010110010010111111110101100001011001000010011001101110101110110100000011
11100100111000010010110111101001000010100110110000110010101010011000110100110100000101010101001100000001100110101010001010110011
01000100100001010110010000100010001011101110100110000111000010100110001001101111110110111111100010111111111010010000010111001100
00011110011000000001011001011100100011100001111000000011010010111001001111001010100000101101011010011010000110001110100100000011
01000100110000110100000110000101101110100000001111011110010000000101110000110010011100010101110101101000111010010001010001111110
11110001000111001001001000100000100101001100000011100001101111111001100011101011100000101011000101010111000110111011111101101010
11010011110110110001101010110101110011110010101100010000001100011111110010011101101010001110100010110111000111001010101011101010
00011010100110000010000011110101010110111110111100011000101100100010001100101111000100010001000011010000010100001010110111100000
10001110110111010001011001011000000000111010100011111011010011110001101000101101010011010000010110010110100111110010000110000011
00001110111011100010101010001111101110100011100000000100010100110111010010001001011011011001101000001011110000101110000110001000
11100001100010001110110000110011100111011111000111111001111011000001100001001001101001110011110101010100001101010011101000011100
11000101111010111110100000101111100010011001000101001110101010011101110000011111011000100110101100010010100111110111001010001100
01100111010111011100101011111111010000011011000101100101010001110111110000101000011001011010111010101110110101110100100010001100
00101100101101110011001111100111101001100100011110110101111010101010100010000010011111110011101010110101011000001100111111100000
00101001001001000000110110010000001101101010001000000111000110010011111010011100100101011011001001101111101110111110010011010001
11111111111110111111101111100110011110010101011101100100001001101101110100010010110001100100100101010100110011000000011111110001
10110110011000001000100011011110010101010011101000101100111001110011001110000010011010011101001001001000110010000100011101000101
01000001110011111101100100100111111111001101010101100001111001000101101001100011100101100110111001110110001111010111100001011000
10001101100010001111110100000110001001101100100111011000100010001100101000110111001101011101011111001111001001001000100011111000
