10000000100111000100100100100010010011001101100110000100111010001100101001101001100001100010110001000010010000010110100011001010
11110101100101100100110001011000010101100101011111001110010010001110010101000100101010010011001111000011100111111001011101111101
11101100100100101001001100100110110100001110000100010001010101100100100010001010010000011101110010100110011100000101010101000100
11111101111101101111001011001000100111111010100000111001001101010110000000011100110110100110111010100110101001001010011110010101
10100110101000100011010111110000111101101100100000110000001100110010001011001110111110000000000010111101001001001100110100101011
01110100000101011110110000100011001100000011101110000101101100110111010010100001100101111010110101110001111001100110000100011000
00010110010010001111110011100110111000000101010111110001001011011000100101011101111011011110000001111010010110010000101110011011
00000100110111011010111100010101001110101110111010110000001010101111111000111011000001101001101011011010001011001100110011000001
10001001111111010001010110111001011000000100011011101001111101111000001101110100100111000000011101001101100011011001001101011010
11000011010110000101111010101110110100010110101101101101111101110111001101110001001000011000000100000100100010000111101010101101
10011111000011100011111110000010111001000110100000100110010110110010011110010100010110111110110010101011001000111011110111001101
11111101111001000011010110010010000101001000001100011001110110011000101010100100000111001000011000101101000001111111110000010010
10101111010110110000101111011111011110110001111111100100001010100111001100010010011111110100101101100000100110000101001010010010
11101011100010110011010110010011111100001111010101110000101010110100100010111001011010011011000111110100010011000101000110111000
10110000101011011110101100001001101101101010110111000110001000111111000101010111101101001000010000011000100111011000001100010000
10011010100001100010011100110110000110110000110011111000010000000011011110000110101011001001000010101011001101000111011110100111
01100010011001101010111111010111100011111011110001000100001100111000110101101000010101000101100001001110010110110011011011011101
00011001101011011010001000000100010010110110010110100110011100100110101101001011011001111011101110001000010111010000010111101000
00010001111111110100111000011011100001110000001011111110011100000000001001010110011101011001001001000010010110000010001111110110
11001110010000000011111100001010110101001011110100001100111101101010111101110110110010101111010100011101110001110111000110100111
10100011010001011100111010100010101111101100100011001110111001010101010001010010010000001000110000000100110000011010101000111000
11000001001110011001101101101101110111011010001101101001100010010101111101001111101110011011110100011100100011011000100001110100
00111111111101001011001011011011110000010001001011100100100110011011111100100001100111011111111000001100111100011111100111101100
01100011000110011101100010000111101001010101101111010001111111010101101000001000011111111111100101110110100011010011101001001001
11100011010101000011101000010110101000100001010000100001111010000111000010000111000011101101001111010101100101100111100001000011
00010111000010000000100111100101001010010111001101111111001000000000111100111111011101011101101011111110010000101100000010100001
10111011101110001100110101010011100010100011110011000101101011010100010011101010010001010111010000010111010000110101010110001101
00111010000001110000011001010110010101111111111011001001110111001011001011101101001011001010110110011011011111011011011011100101
10110111111101101110110111100011101100101110001110011101000000100100111000011011011001011001011010011111110100100100010100111001
11110111010011010011010011011101111010100000010001101010001111011011101101110100100101100110011010001101011010001011101111011101
00100011001110101101110100010100111101110110011001110000011100001100100010111000001010001110101000001010000000010100011001011100
10010111111010010010001011111111110000010101111110111100001110100110101111110111111011101101101000110000110011110110000001010100
10111001100010001101000000100110001011111101000011010011010101101101100010001001011001011001011111011110011110100001110010011011
10011100110111100000111000111010010001110100100110101110100001111100010101000000101000011011000111000011000100010010101100101001
11011000101111101001110110011100001000011000100111100011101011010111001010001001100111011011000100100110111110100100110110011100
11101101000010001001000110011011011101110111111100000011000100010110001010101010110111010110100011111111110001110100011100101111
00000010010111001100110001101111100000001111110001100111100001001001110110111101101100001001110110011110010111111110111000101010
11111010011001100101111111001100110100110001111011001101001110010011001100110101111011110111111101101001000101000111101000000011
11100000101010110010111101110010011001100111011010000011001010100010111100110010100000110100101111111000011100011000010101101000
11111010101010001111001101000010110110011000001111101110101011100101101000010101100100111011100010011001001011110101001001010000
11101001111101001010101011010001000111101001110000000011011101111000110010110101101101110011111110100111101111001101010001110011
10010111010100101001110100110111011111111010010001010110010100011100110110111001111101001111010110110010101001001110010001001101
11011011001001010110010111001010011100100110000101100010011011010011001000010010100111100010000111011110011100001101011100110101
01000110000100000000111001110011001001101100111110101001101100000100010011100001001110111011011100111010011110111011000101101110
00001001001000110110011001010111000011000100010100011010000110001111000001101101101111100100000010011110010111110000010010100100
11110100101100001110101000001010011011111111111100011111011100100011101000101010011100111111111011100011011101111100000111001111
11010001001011110100100100111001101101110101010010100000011110001101000010001000110010000111101011100111010110100110100000010100
01101111111110010000001011110101011011010110111110100000111110101001011110010111001111111010001110001101011000000100000101100110
11100001000010010001001100100100001011000011011010110010111100101010111001100011010111100000010111110000011001010100001001111100
10011001000100011111111010110010101011000011010000111110000010100000111000001101011011000011000100001101101010111000010111001001
11110011001111110100100101101100001011110111111000001010111101100111010010111011111010010101000101110000100000001011000001111111
00100010100110010100111101111011001110001010110100100011011101011000100010011100101100111111100010100010110111111100010000110011
01110111101110100000111111101011000100100010010110101001001110000000000001001000111110100010011011110111011101000001101110000001
00011000011011110011000010001110101001101011101001011100010101010101001011101000010111001001010101101001000110011011111101101001
10010000111110000101110100001110010110000001101110101110001011111010000111110110100011000100000000110100100110101000011011111000
01101111110010111111000110011101011111011010100010101000010011111100001111110010010000100010111001111001101011110011101000111101
01111000011111100010001010101000110101111110100000111100110101101001001111011110011010001011001011001001001011111111100100110111
10111010110010100110110100011111111011000001011000111110001111101110111100110110000001010101000001000010110011010000000111110001
01111011110001100011011000110101000001110110110001100100000011100110000111010100001100111000001101111011011011001101100100100000
00111010011001000001011111101101010100001100111010100000011110011001001100011011000000101100111011101100000000001100111101110111
10000010011000100111000101100011010101110110111000011010101111100001111100000011001001011111101111110000110101001101100000001010
10011111011111000001001011011000010010110001100010110100110110110010001100100100100110001011001100000001001101101110111110010111
10010100110111101010000010100001100010100101100000011001101101100001011110101101110110100111000000111000100100111011110010101000
11010010010010000000011011100110011011111001111010111101110101011010010100010100001010010001011100101111111000111010101101110101
00110101110001001110111001100100100111011011111110011001111010110000101000111010000110111111010001011000101001101000100001001010
01000000001010010101000100100100101001111110000010011111011110111110011110011110001011110101000011100101010100001100101100101110
10100000100101001110011000101011101101001100000110011000110100001010010011010000100000110010100000001101101010101011110100111110
11100110000000001100100101000011000100110101001101110001000101111111100101101101000111001111101111111011110000100011001010001111
11010011010010011111100001101111110101011101000011001001001001111011001001101101101011111011110100010100010001011001001101100001
10011000100010010100110000010110101011001001100011001001100000101111100001011111011001000101010000011110110000110000010011110011
10101010101101011101010110010110011111101100011001110000101100111111111010110011110001110011000011101010001001000000101001100010
00111011111010101111010100000010010111101000000001100001110110110100110100010011011010110100101001101011101110101011000110001100
11101001001011011110010010100011111110101000001010111101100110011000111101110101100101000010010000100101001110111110101011111100
00110010100100011110010110101001011110000111110111100101111010011010000001100000011110101111000111111010011010010100110010000100
00011101111110011011001010001101110100100001001111001100000101010111011101010011011001001111110000001000110011010011001000011100
01011010000100101000001000110010100101011110000110011111011111111111101010001011011011101101110001001111010001011011011100101000
01100100000000011110010000010110110000001000011100001101111111101100100010101010010001000111010111100000001011011011101000010000
11101110100101000000011011111010111100110000110111111110001110011011011110101001111001111000101010111000111111111000010111101000
00110111111111100011011011111110010100011001110011110101111011010011100011000011001100001010101101000110011111111110101010101001
00000110100000001111110111011111001000000011111100001010001100100101110100010011011100111110111001111000111111010100010111111010
11100000110110100011010010000111100101110110111101110010000000011001101101000001100011010011100101110111000110110001110010001111
01110010010011001100010011000000111001111011101110100110001011111001101100111010101100001000101100111010011111100110000110110000
00000100010111001001000001011111001001100001011011111000111011011001011111110101100000011000001110001100100111111000100011001100
11001100101100100110000010110000000100101001111010000000111001011001001011011111110010111000001110010001000100111011101100101101
00111110101001001111010100111101010101110110100010111110100010000101101110010011100111101100010011011010110100000010010011101000
01000101000000011110101000010111001110011010010101101001011011010101110101011111010100001001101110011000110011011100000110011010
01100100001101111110001110011111000010001001001101111010101100011000100110000100100110101111111110000000000101001111101000100111
01011010110110111110011111011001011101100110111010001010010000000100110001010011100111000001101001111010100001110010101101100100
11111100111011110101011100100001110100001011000000000011010001001101100001100000010001100011110110100110011001111111110110100111
00110001111010110111111001100111010010101101010001001010101011101000001001000001111111100110010011010000101101000011001011101011
10110100000010011010011011110011100001001011100001111101101011110111100011100110111110010011100000001101001111111111010000000001
01101001111111110101110011101111110000110011000011111101010100010100110111110011011010100011011100111011111011011111001101100101
01000100011100110010000100011111001011110111111101001101011010011111001101101100001110001101101111110111001011000111111110110000
00111111101101011100111111110100101000111110011111011101100101011111000111111111000011000010001001110011110110111101000100111101
00010011011101100100000001100101110011011000110010011000101101111011110011011000000001101001101110100110101010110100101001101111
01110111000000011011010101001110101110010110100101101000001010101101111110101111011100100101101001101110010001011000011111110010
00001110111010001100011010011100100100000001100100000011001111011101000010001110111001111111100000111010100011111101110000001000
11111101110000100100011001100000111110011011111101011011111110000011011100101010011110010110010100000011100000010001011111000100
01101111111000110011101101110111111100111011110000000001001010110111111010110100000110001000011100101010100010011010101110101010
11010010100100000111100101000011110111000101111100111000000111011100111000100100010011011100111011001101111000000101100010000000
10110010111111010001000000111100111111001001110100111000101011110001101001001110100011000001001000010110011111111000001100100110
00011000111001011010111100001010100011011100011100011101111100101111001011001010011000111101001010001001010101001000110100001110
11100000111111110101001101101101100001111101110110110100110111001010111011111101110100000001001000011011011111011111100000101100
11110101001111111111100110110111110101011010010101000001111011111111011101001011001000101010010100010010110111001001101010100011
01000110001111100110011111100101101100110110101100100101011110100111110110101111010011011100101000111010011000010101100001000110
10111110001101011001101101011000110101010110110000010001010111011110001100001110000110111100000101001101110100101100111100110101
11111110111111000111000100000001101111011010011100000001110001001011100001011001010111010010000011100011100011010101011110000010
11101110101001000000111011011010001110010010000100111111010110011010111110101100011110011101011010111101100111101101110100000100
10110111100100000101110011001100110110010010111110101101101111110101101101011000101111111001111001110000010101001110001011000000
00011001011100001100010100011111111000101000110010100000000100111010111011010101111101100010011111001101111110100101001001100110
00100001111000110111110000011010100101000001110111001001000010000001100011010010100100001000010001011000010011111001110011010000
01100100000110000111110110100011110010000010110101110110000111001111100110111001100101011010100001111110000111110010011001001000
11011011111000110100010101010001001110000001111001101000101111001010011000101000001100001011010100110101110010011111101100101111
10100111011000011001001101101011111010010101011111100100111010010010010101110111011110110011100111110001111000100110101001110111
10111110111000001011110000011110110000000001001111010000111111001110001101010100000011101110000000110011100111101111001011010110
11101000010011100011010001111000101101000110100010010111111111011010001001101001100101110010000010101011001011100010110011110010
11011111010000110110110010101101110110110110011010010000111000111100010100010011011100101100011100001011100110110010000110111111
11111101011010110110000010001110001101001010010111010101010011110011100000000010011000111100010111111100110110010101100110101001
10011011101010010000110101101100000010111101000100101110001110010011101100001010011111000100000011010101000001000000101000000111
00100111100001111000011110000010101111111010101110101000000000011111101100101110110111010010010001110111011001011101001110100010
10101010110101000000011111010010000100110001001000100101011101001001001010100110100111100001000101100101001011101111101100001010
01000111011110010001010100111101001101000110110001000010101001100101100110011110111110011101101010100100001010110100111001100110
11000001100101110001000001010111000011111111101001000000011001100101010101011010101101100110001110010010001011100001111011010101
01011011010001010011111111011111011100101111000001011011010010110011101100000101100011100011011110111111100111100011101101010100
10100100000101010101000011100001001010001001110011000111010111001000110101011000100100001000101010011011100111001100101010111001
11100101111111110011010110100011111100000001010011010011101010111110100011110100010110110011110101100111110010111011001011110010
11101010100100011011011101110100011001111110000000001101000101101011111010110010011010010100110010100001111100001101000111101110
01101000001111110101101111111000001010101010111101101000110001001101100001101111100100110010111111101001001101011101110101101001
10000000101010111110110001100010100111001100010010111111101001001010101011001101001001111100111001010000111000110000011111101110
11100010101001000011001111111000100010110011000110110111001011000110001100010011011010110101010111111100001010011101000111110011
01011000001110001001010001111101111000110111100111110010000101010011010011111111000000100100111111001001011010101100101011111110
01101001000111010111000110101000010100010111010101101001001110010101100010100010111010100010010111010100011000110011101001011011
11110110001000010101011111001111011010110111010011011011101000101101110101001011010101111110010111101000101010011110010011000110
01101110101011011000100011011101100001110100000000101101101111011011011010001011101111011110100110011111100011111111010010000011
01100100110111100000100001101000111101110110001101100110011100010110010010000101000110101010110101100011101000100000111011111110
11001111010011110110000000011101000101011001001110001101111111110111011111011101101100001111101100010110011010010111110010101101
00010001000000100010011110000010010100101010100000101011100111010010101110101100100111111000000001101001011000101001110100110110
01010100100101000000010101110100010010110000011000011100010011101111110111011001011001001111101100001000110001000100001010100001
10001011010100100010000111000101001001101000010111100111011010001100010101010010011100001000011100010010111100100011000000110010
11000001100110000111001011000101101001010000100001110100100000001011111111000000010101110111111110001000110110101101000000011110
01000101010011001101101010011000011100001100110001101101011111110111001011001000000010001110100100000010100111111011111010101111
01001111101101011101101100100101011001111101001110110001011110010101111110000110110100100100001011110010011000000001101101110001
10111110111000010101111100001101001110110010101010010110010010000110000000110000011100010001101011101000111110001100101100010101
11100110011010010111000010010101001100010010000110010101010001001001010010001000000010101001010000111111111100100001110100101111
01000101001011010101111110100101110111011010010110100100001001001100110101110011100101100010001100110010110011110100110011110100
11110101011011001100100100010010000110101011101100011000010001110101100100001010111011110111000111111010100000001000111110010111
11100101000010010100101100000100001000001011011101001111100000101101110000111000011000101100111000100011101011011010010001111100
00111010001000000111000011101110110101011000101000011101010101111011001001010000010000001001111001001110100000111101100101111000
00000100111010010010111000100111100001111010101101011010000011011111101111010101100111010001101010010000010011001111010000101010
01011101011101101001000000110100000101001100111111110011110011000110001100011000101010101011100100000111001001000011101010010111
00100101011010110010000001000110100011001001000100010110110011000001001011101101110100110011000000000101010110111000011011010001
01010000001010000100101000000101100011101110000101001100000000110101010011001101001000000110110010010110011111001000010000000111
01111001011001110001011010010100010111101111111000110101111111010001001011010110001110101011010000000111000110110111100000100111
11001000111110001101001110000111101101010000011011000001100111000100110001111001000010110111100010100101010110111111001010111100
00000111101101011101110110001111011010100001111101111010000011011110010000110111000111100110101101101010100010111100001010011000
11100100001101100001010100001100011100101001011110110001010100110000110000100100100001111111101100101010001101011000001011101111
10110001100110011101010111001111110111100000110100101000001101011101111100111110001001110100111100100000000010010100011111011100
11101001001010000010110110100101010010111010100001011000110011101101001011100110001000010001000111100111000011110110010110000001
00001010100010001111101011011010100011010110111100110101000111111010000001001101000001001011001001010110001110011111111111101000
01010111101110011100100001100100110000110001010111110011111010011001001101010100011000111101001110010110110111111000001111101001
11110010111110000101110000010000100001101100100000100010001101101110000010110110101001100011010111011011001011000010011011011001
11111110100001010011010111011010111000100001000011000011010100001110000010010110111001101000000100101000100010100111011110010110
00010000000101000011000100100000101001101001011010010111000100001010110011001101100000001001011010000111001111011001111011011000
00000000100010001101110101010010001100001101100001011100011010001110111100111110011011001100001011001011000001101000011011001011
00100010010111111101101010011101000100110011011000010011011001010111000000001001111110111111110001101110000100000011011000111101
10011011010000000110110101111110010011011001100011111100010111111011111100011011011011000001011010000000010101110001000111100011
10010010101011001101101100100110111011011101011101001100001010111101111011011011011001110001000000000011001111011011100010101010
00111000101000111001001111101001110110111011100011101001001001100000001010001010000110000111110101000110000001001011011010111010
00000101100100010010111010000111011011000011001000000110110000000111010110111010001100111101110110100010110110100000000001110100
11001111000001111011111110101011101100110000011001000100000110011010011110010100111110110110001111010101110011001111010110010110
00001100111001110101110100100001100110110010000100010000010100010100000011110000100110011010000100000101100101001111001000111100
00100110101001010011010110001011100101011000001111011100001101101001000111110001000001011001100001011100110100100111001110011111
01100101001010010111101001001101101110011000100100000001110100011111110010001000010101111011101101111010101110011110011000011010
10001010111010000001101001000101111111000000001110010110101100111111000001000011100101001010000000010000111010001011001111001001
11000101010100001011011000100011111001001000000101000101101000001111110011000000010100010011101101110110011001111010011011011010
11100100101100010110110100010011011010011011111010010110110011101000010110100011010101100101100011111100111101011000010011010001
00000100011000100011001000001111101011100001101000011001100011100001001011101001111101101011111100100010001011011110100001011100
00011100000100111011110100101000100000011011010001011100100010101011001011001011011111111101000000111010010100111101101110100111
00000101010011001111010100001101001100000100100000110111101110011010101101110000000101101001111101010000000111111001010100000000
00110111111001111111110110000011011001101010010001000100101001110101010001010100111010000110110111010011111100000001001101100001
10001100000100011110110011000111001110001001000101001010110010001010010100001000001111000100001111101011000101100010001011010001
00111010100010100011111100110111110011110010000000101110010111010000001100001010110000100101111100100011110111001000110001111110
01100100001101100110001011011101110000110110011111100101010100110110110101110101001101111010000001101001111011011111000011111100
00010010011000100110101011111110011101010111000101110010001010101111111101011101101000001111101010111010101100001100000111000100
11110001010001110001011011001101001101100110000010011011101001000011010111000001010010011101110100100000100001001111001111000001
11000001000011101101100010100101101011011100011101000011110000000001111101111101011101111111100010111100000100000100010001001000
01111111100110001011101010011001111100101111110101000001101111111010010010001001111000100011101100100110101110001010111111001010
10010000110001001111100000001110100111000011000111101011011010111101001011000111100111001100001100101001000111111000111001110000
10001111111110001011111000001110000010001000100110100010110010110110011011101100001111011011001001001111111110101001111010011001
10000001101101110000110111000111101010100001011111110010011010000101110110000010010100110110100011111010010000011000100001011000
00111001110101100001110000101111101010101011011100100101000111011001111010011111101111100010010011000111001010011110101011010110
01100110000110000110110010111011000010100100101110111110110110011010101111010000101100111000001011100000001001111100111011000111
10100110001111101000010010011011001100110110000100100100001110010111100110100001001101001111110001111101000110100110100100011010
11001001101101000000011010111111100001111010110100111001101010000110110001110110000011000100101110101110101011010111000110001001
10111000010000100000010000111110010011100111100011101010100110111000010010010111111010110101100010001010010011111001011000000001
11010100110011000011110111110110100000000110000100100011101110110101111011010110101110110100110001010000101001011111010100001001
01100110010000100101001110110101110100101110100000010001010100110110100100000111001100011001001010001001011101110010011100011101
11111011101011101001011101010100011111001110010111000100001001101000010100010010110010100110011111110101000011011011011111011101
11111100011100000110100010111110000010100011111101001111001000000011111110101000111001011000001000001010110101000001100001011001
00011110000010111110001110011001010100110111001111100010010000111101001110101111101010100001111010001101110110010100010000100100
11000101100111001010010110010011111010111011011011100010011010110000011110100000110111110110111101100110101011101000011110111111
00010010010111100000000010001011100000000110101001101100100111011000001011000101100001001001101101011110000010110111011000001001
00000111000011111110100000000001100100001000010100101100100000110100110101111000111100111110111100010010010011010101001010011010
00010110100001011000000101110101111001101100010101011111110011100011001010001001010110010010110011100001100101001111100101110101
10110111110011010101110101010001101101000111010110110110010110010000111011011100110001101111000110000001100100001000110010001010
01100010100110000110110011100011111010010110111110100011001000100000111010100011111110111100010010010100111000111011010011111100
11101111000001000100001111110101011100011110011100100001011001010111000000100110010110110110110100111110011001100111000111110000
11011111011110101100100001001100001101110111100001000101011001010001111110001010010011010001101001001010100000001101101000111100
01110011001000110000110011110011001011100010011111011000000100111101011001110100110010101111101101000111001000100011101001000001
11110011011111111011010010101000101101011010111010110101011010011000001011000101110110001001111010101111000011111110111011111100
01000001001011011000110011000001101010100010111010001010000100000100011000111100110110010110010101101111101100000010000001110010
10110000000000010110011110110000001100000011010010001101001100001101110100100001010000101101010000000110100101100010010111100001
11011111111011110111111101000110010011000001010110111110000110111110110001000010110111110100001111100001100100001000000001011000
01100111101110100100000000001001110101110110000100101001011011111000100001101101000000000110000011000010101110010001101011100001
00011101001111110011011111011111010000011011011001000111011101010111110101101010000000111101100000011111000011001100100000111101
10010001000110010001010101111001110101101110011011110110111000110100000011101011110110100010010110101101011010101001111101110001
11100000101110011110110100101010100000110100110100100010101010001100101000001011001101011110101111110000111100010000010011000101
00010000100100100111110001100010111101010100100111100001111111111001111101001001010001011111000111010100000110000110000101001110
10111001010110111111010001111100001111010101011000010101001101010010101001001100010100100010111110010010010111110110100111110110
10110000010110001000000011001110000101010110101000010101100111110011011011111101011111011001001000101101011101100111101110000011
11111001110001100101010000001010001100001000011000100000110100011110010001111100100110000001000100000100001111111111111100110001
11101011010101100001011011101000111101010011111011110001001101010010000010000000110110000011101100100101000000010111001101111001
00100111001001111101111001100000001111011100101011010011001011100100001101011110001101010100001000111001101101001100011001100111
10011010101110101110111001100111100011011110101111000011000100110111110000110011001010100011010011001010111101111100111101000011
10000011010101011011101101110100000011010010000001100101010001011111001011100000111010100010000111000111000010011001110001111101
00100110110110110000010010010000101100011111101000001011111000101010010100111110111110101010110011100111010100001000100101000010
01101010101011101001000110000101101110000101001100011101111110011100110001100000100111110101000001010010101110111001011011110001
00010001110101010011010101101001011110000111010110110000101110000000000011110100100111100011001100010111001111100011011000010000
11001100101111001111000011101100100001010000110110100001100110100001010001101011110111000000011000010110000010010111000111100100
11001001110000100001100101110111001010001010110001000110010000000000000010111010010100110100111111010010111111001001111000011101
01010001000011110001101110000001100011010010000101100001101011010111000010101110100000110010110100111111111010001000001000111011
00101100110101110101101000110101110101011111000100000111000111000101100000010010110011111011100110010111111011110110100000111010
10010111000011011010100010101101001100110000101111100110100011001111010101101100011110011000001001101111110110010100000001011000
11111011111001100000011011000110110101001001101011110100000110111001011010110101111110001011000101100100000110100011111101000011
01001000000110010111010110011000101100001111001000100011010110010001111010001000110100110111101110111001000101101100111011111000
11010101001111010101010101110011111110110001010101000001100110001001100001001100010000101010101101100110001001010100100111100111
10001011110111101010010111011011011010100101001111110110001010011000111101110100100101101100101010101101010100100100110110000100
00010011001101100010110001111010100011110101000010000111010110110011111111110101000011001000000010011011101110001110010100000011
01100100110000010110010111101001001110100110110000100000111010011100110001111110101100010100001100100011101110101010101010110011
01000100100011010110010111001011011011001110100010000111001110100111010000001110010110111111000010011111011010110010011111001101
00011010011000001001111011001100000011111101011000010011010010111001001101001000100010101111010010111010100110001110100101000011
01000110010100110100110111100111001010100000101111011110110000000101111100110110011100000101101010101000111001000001010100111110
11110001110111101001011010100000110101000100010011100001101111111110100111101011100000101011000101010100000110111011101101111010
11010011110110110001101010000101110011110010101100010000001110011111111010011101101010001110100010110111000111001010101011101010
00101010100111000110000011010101000110111110111101011000100101110010101110101111010100010001010011010000010100001011110111110000
11101111110111011011011001010000100000111010101011111011110011010001101001100101100011010000010110010110110111111010000010000001
00101110011011100110101010011111101110001001100000000100010100110111011010001101011011011101101010001011100010110110000110001000
11100000101011000110111000110011100010011111100000111011011011000000100011001001100011110011110000010010001110111011101000001100
10000001111011111110101110101111101011010001001011001010111010011111110001011111011000111110101100010010100111110101001010101000
01110101010110001100101011010110110000010011100100100001000100110010110000100000111011111010111000101110011110110111000111001100
00111100100101110001000101100111011001100101011010110100101011101010110010110010011001101000101000100101011000001101101111110000
00101001000001010100110000000000001000001010101000000010011110000000111110010101100101010011001001101101101010111111010111000001
11101111111110111011100111100110011110000100011100101100001001111000110000010010100000001100110100010101111111000000010111010001
01110110011100111000100010010110011101010111101000101100101101110011001110011110111011111100011001001000111010000100011101010101
01000001111011111001100110011110111111011101011001100001111001000101101111100011100111100110111000010010011111010111101001011000
10001101100010001011110110000110001001101100100111111100101010001100101000111110001100011101001101001111001001001000100011111000
