10010001000111000100100100100010110011001101100110000101111010001100101001111001100001100010110011000010010000010110100011001011
11110111100101100100110001011000010101100101011111001100011010001110010101000100101000010011001111000011100111111001011101111101
11101100100100101001001100100110110101101110000100010001010101100100100010001010010000011101110010100110011100000101010101000100
11111101111101101111001011001100100111111010100000111001001101010111000010111100110110100010111010000111101001001011001110010101
10100110111000110011010111110000111100100100100000110001001100100010001011001110111110000000000011111101001001001000110100001011
01100100000101011010110000100011001100100011101111010111101100110111010010101001110101111010110101110011111001100111010100011000
00010110010010101111110011100110111000000101010111110001001011011000100101011101111011011110000001111010010110010000101110011011
00000100110111011010111100010101001110101110111010110010001010101111111000111011010001000001101011011010001001001100110111000001
11001001111111010001000110111000011000000100110001101001111101111000011101110000110111000000011101001101100011011001001101011010
11000011010110000101111010101110110100010110101101101101111101110111001101101001001000111000000100000100100010000111101010101100
10011111000011100011111110000010111001000110100000100110010110110010011110010100010110111110110010101011001000111011110111001101
11111101111001000011010110010010000101001110001100011001110110011000101010100110000111001000011000101101000001111111110000010010
10101111010110010000101011011111011110111001111111100100001011100111011100010010011111110100101101100000100110000101001010010000
11101011100010110011000110010011111100001111010101110000101010110100100010111001011010011011000111110100010011000101000110111000
10110000101011011110101100001001101100101010110111000110001000111111000101010111111101001000010000011000100111011000001100010000
10011010100001100010011100110110000110110000110011111000011000000011011110000110101001001001000010101011001101000111011110100111
01100010011001101010111111010111100011111011110000000100001100111000110101100000010101000101000001001110010110110011011011011101
00111000101011011010011000000100010010110110010110100110011100100110101101001111011001111011101110001000000111010000010111101000
00010001111111110100111000011011100000110010001011111110011100000000000001010110011101011001001001000010010110000010001111110110
11001110010000000011111100001010110101001011110100001100111101101010111101110110110010101111010100011101110001110111000110100111
11100011010001011100111010100010101111101100100011001110111001010101010001010010010000001000110000000100110000011001101000111000
11000011001110010001101101101101110111011010001101101001100010010101111101001111101110011011110100011100100011011000100001110100
00111111111101001111001011011011110000010001001010100100100110010011111100100001101111011111111000001100111100011111100110101100
01100011000110011101100111000111100001010101101111010001111111010101101001001000011111111110100101110110100010010011101001001001
11100011010101000011101001010110101000100001010100100001111010000111000110001011000011100101001111010101000101100111100001100011
00010111000010000000100111100101001010010111001101111111001000000000111100101111011101011101100011111110010000101100100010101001
10111011101010001100110101010011100010100011110011000101101111010100010011101010010001010111010000010111010000110101010110001101
00111000000001110000011001010110010100111111111011001001110111101011001011101101101011001110110110011011011111011011011011100101
10100111111100101110110101000011001100101010001110011101000000100100111100010011011001011001011010011111110110100100010100111001
11110111010011010011010011011101111010100000010001101010001111011010101101110100100101100110011010101101011010001011101111011101
00100011001110101101110100010100111101110110011001110000011100001100100010111000001010001110101000001010000000010100011001011100
10010111111010010010001011111111110000010101011110111100001110100110101111110111111011101100101000110000110011110110000001010100
10111001100010001101000000100110001011111100000011010001010101101101100010001001111001011001011111011111011110110001110010001011
10011100100111100000111000111010010001111100100010101110100001111100010101000000101000011011000111000001000100010010101100101001
11011000101111101001110110011100001000011000100111100011111011011111001010001001100111011011000100100110111110100100110110011100
11101101000010011001000100110011011101110111111100000011000100010110001010101010110111010111100011111111100001110100011101111111
00000010010011001100110001101111000100001111100001100111100100001001110110111101101100001001110010011110011111111110111000101010
11111110011001100101111111001100110100110001111111001101001110010001001100110101111011110111111101101001000101000111101010000011
10100000101010110010111101110010011001100111011010000011001010100010110100110010101000110100101111111000011100011000010101101000
11111010101010001111001101000010110110011000001111101110101011100101101000010101100110111011100010011001001011110101001001010000
11101001111101001010101011010001000111101011110000000011011101111000110010110101101101110011111110100111101111001101010001110011
10010111010100101001110100110110011111111010010001010110010100011100110110111001111101001111010110110010101001001110010001001101
11011011101001010110010111001010011100100110000101100010011011010011000000010010100111100010000111011110011000001101011100110101
01000110000100000000111001110011001001101100111110101001101100000100010011100001001110111011011100111010011110111011000001101110
00001001001000110110010001010111000011000000010110011010000110001111000001101101101111110100000010011110010111110100010010100100
11110100101110000111101000001010011011111111111100011111011000100011001000101010011100111101111011100011011101101100000111001111
11110001001011110100100100111001101101110101010010100000011110001101000010001000110010000101100011000101000110100110100000010100
01101111111110010000001011110101011011010110111110100000111110101001011010010111001111111010001110001101011000000100000101100110
11100001000010010001001100100100001011000011011010110010111100101010111001100011010111100000010111110000011001010100001001111100
10011001000100011111111010110010101011000011010000011110000010100000111000001101011011000011000100001101101010111000010111001001
10110011001111110100100101101100001011110111111000001010111101100101010010111011111010010101000101110000100000001111000001111111
00100010100110010100111101111011001110001010110100000011011101011000100010011100101100111111100010100000110111111100010000110011
01110111101110100000101111101011000100110010010110101001001110000001000001001000111110100010011011110111011101000011111110000001
00011000011011110011000010001110101001101011101001011100010101010101001011101000010111001001010101101001000110011111111101100001
10010000101110000101110100001110010110000001101110101110001011111011000111110110100011000100000000100100100110101000011011111000
01101111110010111111000110011101011111111010100010101000010111111100001110110010010000100010111001111001101011110011101000111111
01111000011111100010001010101000110101111110100000111100110101101001001111011110011010001011001011001001001011111111101100110111
10111010110010100110110000011111111011000001011100111110001111101110111100110110000001010001000001100010110001010000000111110001
01111011110001100011011000111101000001110110110001100100000011100110000111010100001100111000001101111011011011001101100100100000
00111010011001000001011111101101011100001100111010100000011110011001001100111011000000101100111011101100000000001100111101110111
10000010011000100111000101100011011101110110011000011011001111100001111100000011001001011111101111110000110101001101100000001010
10011111011111000001001011011000010010100001100010111100110100110010001100100100100110101011001100000011001101101110111110010111
10010100110111101010000010100001100010100101110000011001101101100001011110101101110110100111000000111000100100111011110010101000
10010010010010001000011011100110011011111101111010111101110101011010010100010100001010010001011100101111111000111010101101110101
00110101110001001110111001100100100111011011111110011001111010110000101000111010000110111111010001011000101001101000100001001010
01000001001010010101000100100100101001111110000010011111011010111110011110011110001011110101000011100101010100001100101100101110
10100000100101001010011000101111101101000100100010011000110100001010011011010000110000110010100000100101101010101011110100011110
11100110000000001101100101000011000000100100001101110001000101111111100101101101000111000111101011111011111000100011001010001111
11010011010010010111100001101111110101011101000011001001001001111011001001101101111011111011110100010100010001001001001100100001
10011000100010010100110010010110101011001001100011001011100000101111100001011111011001000101010000011110110000110000010011010011
10101000101101011101010111010110011111101100011001110000101101111111110110110011110011110011000011101010001001000000111001100010
00111011111010101111010100000010010110101000000001100001110100110100110100010011011010110100101001101011101110101011000110001100
11101001001011011111010010100011111110101000001010111101100110011000111101110101100101000000010000100101001110110110101011111100
00110010100100011110010110101001011110000111110111100101111010011010001001100010011111101111000111111010011010000100110010000100
00011101111110011011001010001101110000000001101111001100000101010111011101010011011000001111110100001000100001010011001000011100
01011010000100101000001000110010100101011100000110011111011111101111101010001011011011101101110001001111110001011011010100101100
01100100100000011110010000010110110000001000011100001101111111101100100010101010010001000111010111100000011011011011101000010000
11001110100101000100011011111010111101010000110111111110001110011011011110101001111001111001101010111000111111111000010111101000
00110111111101100011011011110110010100011101110011110101111011010011111011000011001100001010101101000110011111111110101010101001
00000110101000001111110111011111001000000011111100001010001100100101110100010011011100111110111001111000111111010100010111111010
11100000110110100011010010000111100101110110111101110010000000011001101101000001100011010011100101110111000110110001110010001111
01110010010011001100010011000000111001111011101110100110001011111001101100111010101100001000101100111010011111100110000110110000
00000100000111001001010001011111011001100001011011111000111111011001011111110101000100011000001110001100100111110000100011001100
11001100101100100110000010110000000100101001111010000000111001011001001011011111110010111000001110010001000100111011101100101101
00111110101011001111010100111101010101110110100010111110100010000101101110010011100111101100010011011010110100000010010011101000
01000101000000011110101000010111001110011010010101101001011011010101110101011111010100011001101110011000110011011110000110011010
01100101101101111110101100011111000010001001001101111010101100011000100110000100100110101111111100000000000101001111011000100111
01011010110110111110011111011001011101101110011010000010010000000100111001010011100111000001101001111010100001110010101101100100
11111100111000110101011100100001110100001011000000000011010001001101100001100000010001100001110110110110011001110111110110100111
00110001111010110111110001100111110000001101010001001011101011101001001001000001111111100110010011110000101101000001001011111011
10110100000010011010011011110011100001001011000001101101101011110111100011100110111110010011100000001101001111111111010000000001
01101001111111110101110011101111110000110011010011111101110100010100110110110011111010100011001100110011111011011111001101110101
01000100011100110010000000011111001011110111111101001101011010011111001101101100001110001101101111110111001011000111111110110000
00111111101101011100111111110100101000111110011111011101100101011011000111111111000011000010101001110011110110111101000100111101
00010011011101100100000001100101110011011000110000011000101101111011110011011010001001101001101010100110101010110100101001101111
01110111000000011111010101000110101110010100100101101010001010101101111111101111011100100101101001101110010001011001010111000010
00000110111010001100011010011100100100000001100100000011001111011101000010001110111001111111100000111010100011101101110001001000
11111101100000100100011001100000111100111010111001011111111110000011011100101010011110010110011100000011100000010001011111000100
01101111111000110011101101110111111100111011110000000001001010110111111010110100000110001000011100101010100010011010101110101010
11010010100100000111100101000011110111000101111100111000000111011100111000100100010011011100111011001101111000000101100010000000
11110000111111010101000000011100111111001001110100111000101011111000101001000110100011000001001010010110011111111000011100100110
00011000111001011010111100001010100011011100011100011101111100101101001011001010011010111001001010000011010101001000110100001110
11100000011110110100001111101101100001111101110111110100110111001000111011110101110100000001001000011011011111011111100001101100
11110101001111111111100110110111110101011010010101000001111011111111111101001011001000101010010100010010100111001001101010100011
01000110001111100110011111100101101101110110101100100101011110100111110110101111010011011100100000111010011000010111100001100110
10111110001101011001101101011000110101010111010000010001010111011110011000000110000010111100000101000101110100100000111100110101
11111110111111000111000100000001101111010010011100000001110001001011100001011001010111010010000011101011100011010101011110000010
11101110101001000000111011011010001110010010000100111111010110011010111010101100011110011101011010111101011111101101110100000100
10110111101100000101110011001100110110010010111110101101101111110101101101011000101111111001111001110001010101001110001010000000
00011001011100001100010100011111111000101000110010100000000100111010111011010101111101100010011111001101111110100101001000100110
00100001111000110111110000011010100101000001110111001001000010000001100011010010100101001000010001011000010011111001110011010000
01100100000110000111110110100011110010000010110101110110001111001111100110111001100101011010100001111110000011110010011001001000
10011011111000110100010101010001001110000001111101101000101111001010011000101000001100001011010100110101110010011111101100101111
11100101001000011001001101101011110011010101011110100100111010010010010100111111011110111011100111110001111000100110101001110111
10011110111011001011110001011110110000000001001001010000111111000110001101010000000011111110000000110011100111101101001011010110
01101000010011100011010001111000001101000110100010010111111111011010001001101001100101110010000010101011001011100010110011110010
11011111010000010110110000101101110110010110011010010000111000111100010100010011011100101100011100001011100110100010000110111111
11110001011010110110000010001110001101001010010111010101010011110011000000000010011000111100010111111100110110010101101110101001
10011001101010010000110101101100000110111101000100101110001110010011001100101010011111000000000011010101000001000000101000000111
00100111100001111000011110000010101111111010101110101010000000011111101100101110110111010010010001110111011001011101001110100010
11101010110101000000011111010010000100110001001000100101011101001001001010100110100111100001000101100101001011101111001100001010
01000111011110010001010100111101001101000110110001000010101001100101100010011111111110011101101010100100001010110100111001100110
11000001100101110001100101010111000011111111101001000000011001101101110101011010101101100111001110010110001011100001110011010101
01011011110001010011111110011111011100101111000001011011010010110011101110000101100111000011011110111110100111100011101101010100
10100100000101010101000011100001001010001001110010000111010111011000110101011000100100001000001010011011100111001100101010111001
11100101111111110011010110100011111100000001011001010011101010111110100011111100010110110011110101100111110010111011101011110010
11101010100100001011011101110100011001111110000000000101000101101011111010110010011010010100110010100001111100001001000111101110
01101000001111110101101111111000001010101010111101101000110001001101100001101111000100110010111111101001001101011101110101101001
10000000101010111110110001110010100111001100010110011111101001001000101011001111001001111100111011010000110000110000001111101110
11100010101001000011001111111000100010100011010110110111001111000110001100010011011010110101010111111100001010011101000111110011
01011000001110001001010001111101111000110111100111110010000101010011010011111111000000100100111111001001011010101100101011111110
01101001000111010111000110101001010100000111010101101001001110010101100011101010111011100011010111110100011000110011101001011011
11110110001000010101011111001101011110110111010011011011101000101101110101001011010101101110010111101100101010011110010011000110
00111110101011011000100011011101100001100100000000101111101111011011011010101011101111011010110110011111100010111111010010000011
01100100110111100000100001101001111101110110001101100110011100010110010010000101000110101010110101100011101000100000111011111110
11001111010010110110000000010101000101011001001110001101111111110111111111011101101100001111101100000110011010010111110010101101
00010001000000100010011110000010010100100010100100101011100111010010101110101100100011111000000001101001011000101001110100110110
01010100100100000100010101110100010010110000011000011100010111101111110111011001011001001111101100001000110001000100001110000000
10001011010100100010000111000101001001101000010111100111011010001100010101010010011100001000011100010010111100100011000000110010
11000001110110000111001011000101100001010000100001110100110000001011111111010000010101110111111110001000111110101101000000011110
01000101010011001101101010011010011100001100110001101101011111110111001010001000000110001110100100000010100111111011111010101111
01001111101101011101101100100101011001111101001110110001011110010101111100001110110100100100001011110010011000000001101101110001
10111110111001010101111100001101001110110010001010010110010010100110000000111000011000010001101011101000111110001100101100010101
11101110011010010111000010010101001100110010000110010101010001001001010010001000000010101001010000111101111100100001010100101111
01000101001001010101111110100101110111011010010110100100001001001100110101110011100101100010100100110000110011110100110011110100
11110101011011001100100100010010001110101011101100010000010001110101100100001110111011110111000111101010100000001000101110110111
11100101000010010100101100000100001000001011011101001111100010101101110001111000011000101100111000100011101011011010010001111100
00111010001000000111000011101110110101011000101000011101010101111011001001010001011000001001111001001110100000101111100101111000
00000100111010010010111000100101100001111010101101011010000011011110101111010101100111010001101010010000010011001110011000101010
01011101011101101001000000110100000101001100111111111011110011000110001100011000101010101011110100000111001001000011101010010111
00100101011010110110000001000110100011001001000101010110110011000001001001101101110110110011000000000101010110111000111011010001
01010000001010000100101000000101100011101110000101001100000000110101010011001101001100010110110010010110011111001000010000000111
01111001011101110001011010010100010111101111111000110101111111010101001011010110001110101011010000000111000110110111100000100111
11001000111110001101001110000111101101010000011011000001101111000100110001111001000010110111100010100101010110111111001010111100
00000111101101011101110110001111011010100001111101111010000011011110010000110111000111100110101101101010100010111100001010011000
11100100001101100001010100001100011100101001011110110001010100110000110000100100100001111111101100101010001101011000001011101111
10110001100111011101010111001111110111100000110100101000001101011101111100111110001001110100111100100000000010010100011111011100
11101001001010010010110110100101010010111010100001011000110011101101001011100110001000010001000111100111000011110110010110000001
00001010100010001111101011011011100010010110111100110101000111111010000001001101000001001011001001010010001110011111111111101000
01010111101110011100100001100100110000110001010111110011111010011001001101010100011000111100001110010110110101111000001111101011
11110010111110000101110000010000100001101100100000100010001101101110000010110110101001100011010111011111001011000010011011011001
11111110100001010011010111011010111000100001000011000110010100000110000010000110111001101000000100101000100010100111011110010110
00010100000101000011000100100000101101101001011010000111000100001010111011101101100100001001011010000111001111011011111011011000
00000100110010001101110101010010001100001001100001011100011010001100111100111110011111011100001011000011000001101000011011001011
00100010010111111101101010011101000100110011011000010011011001010111000000001001111110111111110001101110000100000011011000111101
10011011010000000110110101111110010011011001100011111100010011111011111100011011011011000001011010100001010101110001000110100111
10010010001011001101101100100110111011011101011101011000001010111101111011011011011001110001000000000011001111011011100010101010
00111000111000111001001111101001110111111011100111101001001001100000001110001010000110100111010101000110110001011011011010111010
00000101100100010010111010000111011011000011001000001110110000000111010110111010101100111101010110100010110110100000010001110100
11001111000001111011111110101011101100110000011001000100000110011010011110010100111111110110001111010101010011001111110110010110
00001100111001110101110100100001100110110010000100010000010100010100000011110001100110001010000100000101100100001111001000111100
00100110101001010011010110001011100100011000001111010100001101101001000111110001000001011011100011011100110100100111001110011111
01100101001010010011101001001101001110011000100101000001110100011111110010001010010101101010101111111010101110011110011000001010
10001010111010000001101001000101111111000000001110010110101100111111000001000011100101001010000000010000111010001011001111001001
11000101010100001011011000100011111001001000000101000101101000001111110011000000010100010011100101110110011001111010011011011010
11000101101100010110110100010011011010011011111010110110110011101000000110100011010111100101100011111100111101011000010011010001
00000101011000100011001000000111111011101001101000011001100110100001001111101001111101101011111100100010001011011110100001011100
00011100000101111011110100101000010001011111010001111100100110101010001011001011011111111101000000111010010100111101100110100111
00000101010011001111010100001101001100000100100000110111101110011010101101110000000101101001111101010000000111111001010100000000
00110111111001111111110110000011011011101010010001100100101001110101000000010100111010000110110111010011111000001001001101100001
10001100000101011110110011000111001010001001000101011010110010001011010100001000001111000100001101101011000101100010001010010001
00110000100010100011011100110111110011100010000000101010010111010000001101001010011000100111111100100011010111001000110001111110
01100100001101100110001011011101110000110110011011100001011100110110110101110101001111011010000001101001111011011111000011111100
00010010011000000100101011111110011101010111000101110010001010101111111101011101101000001111101010110010101100001100000111000100
11110001010001110001011011001101001101100110000010011011101001000011010111000001010010011101110100100000100001001111001111000001
11000001000011101101100010100101101011011100011101000011110000000001111101111101011101110111100010111100000100000100010001001000
01111111100110001011101010011001111100101111110101000001101111111010010010001001111000100011101100100110101110001010111111001010
10010000110001001111100000001110100111000011000111101011011010111101001011000111100111001100001100101001000111111000111001110000
10001111111110001011111000000110000010001100100110100010110010110110011011101100001111011011001001001111111110101001111010011001
10000001101101110000110111000111101010100001011111110010111010000101110110000010010100110110101011111010010000111000100001011000
00111001110101100001110000001111101000101011011100100101000111011001111010011111001111100010010011000111001010011111101011010110
01100100000110001110110010111011010010100100101110111110110110011010101111010100101100111000001011100000001001111110111011000111
10100110101111101000010110011011001100110010001100000100001110010111100010100101001101001111110111111101000110100110100100001010
11001001101101000000011010111111000001111010110100111001101010000110110001110110000011000100101110101110101011010111000110001001
10111000010000100000010000111110010011100111100011101010100110111000010010010111111010110101100010001010010011111001011000000001
11010100110011000011110111110110100000000110000100100011101110110101111011010110101110110100010001010000101001011111010100001001
01100110010000100101001110110101110100101110100000010001010100110110100100000111001100011001001010001001011101110010011100011101
11111111101011100000011101010100011111001110010111000100001001101000010100010010110010100110011111110101000011011011011111011101
11111100011100000110100010111110000010100011111101001111001000000011111110101000111001111010001000011010110101000001100001011001
00011110000010111110001010011001010100110111010111100010010001111111001010101110101010000001111010001100110110010100010000100100
11000101100111001010010110010011111010111011011011110010011010110000011110101000010111110110111101100110101011101000011110111111
00010010010111100000001000001011100000000110101001101100100111011000001011000101100001001001101101011111000010100111011000001001
00000101100011011110100000000001100010101000010100101100100000110100110101111000111100111110111100010010110011010101001010011010
00010110100001011000000101110101111001101100010101011111110011100011001010001001010110010010110011100001100101001111100101110101
10110111110011010101110101010001101101000111010110110110010110010000111011011100110001101111000110000001100100001000110011001010
01100010100110000110110011100011111010010110111110100011001000100100111010100011111110111100010010010100111000111011010011111100
11101111000001000100001111110101011100011110011100100001011001010111000000100110010110110110110100111110011001100111001111110000
11011111001110001100000001001101001111110111110001000101011001010001011110001010010011011001101001001010100000001101001000101100
01110011001000110000110011110010001011100010011111011000000100111101011001110100110010101111101101000111001000100011101001000001
11110010011111111011010010101000100001011010111010110101011010001101001011100101100110001011111010101111000011111110111011111100
01000001001011011000110011000001101010100010111010001010100100000000011000111100110110010110010101100111101100000010000001110010
10110000000001010110011110111000000100000011010110001101001100001101110110110001010000101101010000000100100001100110010111100001
11011111111011110111111101000110010011000001010110111110000110111110110001000010110111110100001111100001100100001000000001011010
01100111101110100100000000001101110101110110000101101000011011111000100001101101010000000110000011000010101100010001101011100001
00011101001111110011011111011111010000011011011001000111011101010111110101101010000000111101100000011111000011001100100000111101
10010001000110011001010101111001110101101111011111110110111000110100000011101011110110100010010110101101011010101001111101110001
11110001101110011111010100101110100000110100010101100010101010001100101000001011001011011110101111110000111100010000010011000101
00010000100100100111110001100010111001010100100111101001111111111001111101001011010001011111010101011100001110000110000101001110
10111001010100111111010001111100001111010101011000010101001101010010101001001100010100100010111110010010010111110110100111110110
10110000010110001100000011001110000101010110101000010101100111110011011011111101011111011001001000101101011101100111101110000011
11111001110001100101010010001010001100001000011000000000110100011110010001111100100110100001000100000100001101111111111100110000
11101011010100100001011011101000111111010011111011100101011101011010000010000000110110000001101100100101000000010111001101111001
00100111001101111101111001100000001111011100101011010011001011100100001101011110001101010100101000111001101101001100011001100111
10011010101110101110111001100111100011011110101111000011000100110111110000110011001010100011010011000010111101111100111101000011
10000011010101011011101101110100000011010011000001100101010001011111001011100000111010100010101111000011000010011001110101111101
00110110110110110000010010010000101100111111101000001011111000101010010100111110111110101010110011100111010100001000100101000010
01101000111011101001000110000101100110000111001100011101111010010100110001100000100111110101000001010010101110111001011011110001
00010001110101011011010101111001011110000111110110110000101110000000000011110100100111100011001100000111001111100011011000010000
11001100101111101111000011101100100001010000110110100001100110100001010001101011110111000000011000010110000010011111000111100100
11001001110001110001100101110110001010001010110001000110010000000000100000111010010100110100111111010010111111001001111000010101
01010001000011110001101110000001100011010010000101100001101011010111000010101110100000111010110100111111111010001000001000111011
00101100110101110101101000010101110100011110000001000011000111000101100000010010110011111011100110010111111011110110100000111010
10110111000011011010100010101101001100110010101111100110100011001111110101101100011110011100001001101111110110010100000000001000
11111011111000100000011001000110110101001001101011110000000111111001011010110101111110001011000001100100000110100011111101000001
01001000000110010110010110011000101100000111001000100011010010010001111010001100110100111111101011111001000101101100111011111000
11000101001111010101000100110011111110010001010101000011100111001000100001001100010000100010110101100100001001010100100111100111
10001011110111101000010111011011011010100101001111110110001010011000111101110100100101101100101010101101010100100100011110000100
00010011001101000010110101111010100011110101000010010111010110110011111110110101000011001000000010011011101110001111000100000011
01101100110000010110010111101001001110100110110000100010111010011000110001111110101111010100001100100011100110101010111010110011
01000100100011011110010111001011011010001110100010000111001110100111010000001110010110111111000010011111111010110010011111001101
00011010011000001001111001001100100011111101011000010011010010111001001101001000100010101111010010111010100110001110100101000011
01000100010100110100110111100111101010100000101111111110110000000101111000100110011100000100101000100001111001000001010100111110
11110000110111101001001010100000110101000100010011100001101111101110100111101011100000101011000101010100000110111011101101111010
11010011110110110001101010000101110011110010101100010000001110011111111010011101101010001110100010110111000111001010101011101010
00101010100111000100000011010101000110111110111101011000110101110010101110101111010100010001010001010000010100001011110111110000
11101111110111011011011001010000100000111010101011111011010011010011101001100101100011010000010110010110110111111010000010100001
00100110011011100110101010011111101110001011100000000100010100110111011010001100011011011101101010001011100010110110000110001000
11100000101011000110111000110011100010011101100000111011010011000000100011001001100011110011110000010010001110111011101000001100
10000101111011111110101110001111101010010001001001001110111010011111110001011111010000110110001100010010100111110101001010100100
01110101010110001100101011010110110000010011100100100001000100110010100000100000011011111010111000101110111110110111000110001100
00111100100101110001100101100111011001101101011010110101101011101001110010111010010101101010101010100100011000001101101111110000
00100001000001010100110000000000001100001010101000000010011110000000111110010101100101010011001001101101101010111111010110000000
11101111111110111011100011100110011110000100011100101100001001111001110000010010100001001100110100010101111111000000010111010001
11110110011100111000100010010110011101010111101000101100101101110011001110011110111011111100011001001000111010000101011101010101
00000001111011111001100110011111111111011101010001100001111001000101101101100011100111100110111000010010011111010111101001011000
10001101100010001011110110000110001001101110100111111000101010001100101000111110001100011101001101001111001001001000100011111000
