0011000010101100010100100111000110100101100110101101000101101110011110011011111011101010111101110011111010101110111010110001001001101101111101100101110010011010101010010000001001000101010001001111000001110111001001111110110010110101000110011111111100011110
1101011110001110100010101111110000110001001011011100010101111011100001100100100011010110100101110010101110100111101110110101111011100110001110011000110111001110100111011010101100011111010111010000010110111001111011001100110000100001101110010010001100101110
0011111011100100010011101000011101110101001011011111010001100101010001001100000000011010100110110011101101101011100000010110101011101101111010000101110010110110101010110101001001110011110011010000111110111100100001011010111001011101110000010111111101111110
0011001001001101001000100000000010101110110111111001100011101100000011011011101100000000011010111101000000101010010000110111010000000101011101010011001010111011110000111001100011101000110101011111111101010110011000101000111110000110110001101100011011001010
0011111001110001000100101011001110111100110101111100000001100110010101000011001010100101100110110110000100000010111001011010110001000001011011110010110000110111101001011001100000011001110000001110111110110110101101011010111110001101010010101111110000011100
1011111001100011110001011011011001000000011111001001110111001001001111101101111101011111000001101000001000000101111110101111000010110010100101101001011110000111100111010110110010000100010010010110001010111100010110100000100010100010010010100011000001111110
0011001001111001000101110000001011100001001100111111100010110001100101001110101000101010111100101000010000001000011001101001001001001011101101110001101100001101100010001011011011100010110110001011111000000100001011101110100011111110110010111011011101010000
1101001100101100010110110110111101110100111111010111010100100010011101110010110111010010000100001011011101100111011011010000100110101111110100110110010011010110111010100010000001000101110111010000011011010110110101110110000111100101101001000010011100101010
1101010111111010110011000011001010110011001100000011100100101010011111000001100010101010110110111101011010000101010110100100101101111101101101001101000000001110000010011100000111000010101011110111011011010001111100011000110110000110000101101110101110011011
0111001011101011010100110000100100101110000101111001101000110100110110010110010101100110111100010100011100111000110111001000011000101011000111110111000011110100010110011000011101000101100101011111110111100000101000110010001010110001110111010001101101001011
0011010111000001011111111001010011100001010101011100000001100010001100101010100110101010111010001010111110111101110011000011011110000010011101000111101110110111111111110000110011010100100000100001101101100100111010010110000011010000011001110001101000011000
1011111000011100001010001011100111111111111000001010011001000111011101000101101001000101000101010001101100100001001101101010110010110110000000001011011110001001101111011101100111010001010000000110000100010110111111110000110001101001111000000010011110111101
0001110111111110011010110101010110010101111100100011011100101000100101000010010101110110010100111111001101110001110110001110010010100010011000011000010111010000010011111010011111100001010100000110101110101000110100001000110011110101111001100111011111000011
0100111001100100001100111101010101111000110101101101101100101011011010010100111100001110000101110000100101101001011110001110100010111011110010101001010111000000011010010100001001101001010001110110110111001000010011010010111010101001010101011101100100111010
0111110111001011011100101011010111111100011100110010001000110100010000010110000100000110101000110100100101100111100001011100000010100100101011010100000011110100011101111100010101000001101001001100111110100000001001100010001001001001000101011011110000011010
1101110110001010110111011110111101000101111111101110110100100001001000110001101011011111010100110001001100001101101011001001110111111110101001001101000100110100100110111001000010110011011101000000101010100111101100010110100010100000111001100111000010100001
1101001110000110100000110101000011101111101000101010110010000101111111100101111001010110111111001101011000011111001100000010010111000000100101101010000110100000110001001110011110011110100110010101000000000010000000111001110101011100111100110110001011100000
0101001110000110101011001101010011011011001110001111010011010000101110101100110011010000010100011001011010110111111010100001100110000000001110011111010110001010110001111010101000011110101110110001001010000111010000001111000111011100100101110110001011101111
1011000101010010101101000001101010001110010110111010010111001100101111001111011110011011001001110010000000011000110011111001101100000000001011100101110101101100100111101001000110010010101101010101111000011111001100011101000010110010010010111110010011010101
1111010001100100000101001011110100110011100100001101000100111100010111111010111101111110110111110001101110100101111010100100111100111110000001001101011111111000001010000010101011010100110110110001010011110011011001101010010110010001101010010010101001011100
1111001111001010011010011100001011000001001101010011010100101000001111101101101010110101101110101010010000010111011010000101101110001000010101001101111010001100001000100111010010100100101110010000001001001110000011110111011001010111101111110100001001100010
1101100010100001011101000110111011010101110111110011001100001111111100010011111011000111101110110011110100010001010000010101111111111011100001011110100000100010001001111101001111100011011000101000111001001010000010100101011001111110000111111000110111010010
0001011110101101000001011100011111100000010111001000000011110010000101011110100101110000010100001000011100111000011010011011101011001001100101100001100111100111001000110110000001101100001101011011110000100011111011011110001010101001111111011101011010101000
1101110100010000110110100110011100110001111110000111100101111001011000000010111011001011101010000011111000000111101011000101101011101111110000101010010110101110101100011001000010110010010000000000101010111101011101111100110001010110001010011111110110000100
0011110001011010010101111101111100101000010010111110011111001011110001010100100010011111100100100111011100000001110111010101101010111001110101111101100010000000001010001111011101100111100001001110100111010010101001010010000010100010010101010001101101111010
0011011000110011001101101010111011100101011001011011100111101001100000011101000000100000111010001001000101001011110001110001011111011101010111010001101000011111100010101110011110100000000100001011111000111100100111011110001000111110011000011011011001011011
1101011010011100111010001011100011100111100010100110100010011110100000101010001001000000111011010010011010101001001000010101110111110111000010101000000111100110010011110001100001101011100101110001010000011011101111100101001110011011001000001000001100110101
0110101010111000001110000010101100000101110011100000100011111111100000011010000000000011001010001100000101100010101100001010011001001111010111110110100010010101000100001111110011111010010010000010110110001010101111110101111111101100010001111010110110010010
0010011101000000011000110011100000111100011111110010011010000011110010011110111110011110100000101101110100000001010100000011011011101011010101100111000001010001000110101101010011100111101101001010111111100100001000000010010010101000111111000101101110101010
1111001101001011000000011011000010001101010000001100100011011110011110111111011100110001011100001011101111000110110111100011010101000110011101000011111110110111111111000110101110010100011100111001111110110101101000100000010111000010111000110001000011000110
1111011101000000100110100000110010000011011100110000001001101011011110001011000111001011011110100001001101111101000100110011001101111101101001101111100010111000100101000000110101111001011111001001001011111010001111101101100100001101100111011011111001100101
0101111111011010010111101110110010100010110011100111111101010011101001110111110111111111100000000011011010100111111111001101011010111110001101111010110101001100011110111111010110000111010110000101010010010001110111110101000010110110111101010101000100101010
1100000110001111011011000101110010100010001000100011011100001010001011100110010101111100110111011101001011111101000110000010110100100000100101001111000111001101111011010100001101011110001101111101001000100010011000001001000011010101111111010111001011011101
0111011100001000000110100010000000100010110100101110100110110001000001011110101111100110011110101011111100001001001011100101011001101100001101100011001111001110010010011101001001100110101100001011101111000001101000101110001011101010011010100011011101010011
0101111100000010110101111110011001100101000111001111110100100001011001111001110111110111110111110000011000000111111011000001011011111110111000101010110101000100111110001000001010110011011000100000101011111111111111100100110101010011100000000111010011111010
0111100011010100010001101100011011110111101110001111001110110001010011011000010010111010111111010001111100011011110010110000101111101011111110011000111010000110101000010010000101111110100110110001100111010000010001111010100001010000001110000111101010101100
1101000111011011011110000110010011100100000101011010010110100100101110101011101110100101111010001011010110010111010010100101001110011100110100111000011000011000010000101110010000010110101000010100000011000110100100111101001000100110001100010001001010001010
1110010010001101101000101011100111101100100000101001100000000110000010111010100101101001011001010101001111111100001011001010000100000110101011100100010111111001010101001001101100010001011100111001010110111011111010110001100101000001011110011100110000010101
1010110000111011101110110010001100000100100001011110100111010110111000011010000010000010100010101011110110011010111001110101010001001101110100110010101000100100000110101001001110100000010000101111110110010101010011110110101101111110000000111101010000011010
0011001110111000001000111101011111101111011000101110000011000011000000011110000000011010111100001110011000011000101010011011011001001001111000110001101110110110111110100010001101101111000110011011111100100100101001101011110111001001111001101011001010001100
1100100110110100100110101000011111011011110000001000111001110110010101101001000101001000111011010110100011111111001101111000000011010100111010000010011010100111111001110010111000011000111101110001000100111000010110111001011100010001001110010100100010111101
1100010010011100101100000010100011100111101010000111101010111100100000111100000011000000110011010100000101111001001000100101110111011111010010100010001111111010111111101011100101111011110101101101110101001001111111000101001111011010100000101010111111110101
0111111001111001100001001110111110100000111011111111011110111011010011111000000011000101101001000110000010110111110000110001011011011110111110010000111110000110011100011011001100101011010011110011010110110111101001110101100101011110001010010110000000101100
0111011111000000010110100100111000100100010110101011010110100001011011001101101111010011011101101000110101001111001001100011111000101101010101110100000001011111011110010100011011100110011100010110001011100111011110010111000110001111110010010011001110100011
1010100011111001111100110001100011111010000000111000001011010110100111001101010100000000111011010111000110111010110100101000010010010011100110110111101101111111100101001001111101010011100010011111100101111000101110010001111010011110000110111100111000110101
0101010000010011000111000010001110110100111110100110100111100010011001100101100011000011010100011001101000000001001001000101101111110111011000100110010100001110001110101010010110110111010000010000111011101111110110110110100111101101000000111111110011000011
0011110000011011100111110000111011011100110001110110001111100000111000110100100110001011000101000100110100111110011000111100000010000101100001110000010100101010001110100000101110010101010000011000101001110101101011111010100011110010011001001001100110100110
1101011100011010100110011101011010100011001110011111110111101011001111101100000011111010100000001001101000110101111010100101111110100100110100101101100111001010110100100111001100111110000010010001001000011111101101001100110010011111111010110101001111100001
1000010010000010101110110001101011100010101111110011000110100100100110010100101010101110100000111000110000000001101001000001011101111001101100111110000001010000000010001011011001101111100100111010101011000001101011001110011110110110110101101101101101100011
1101001100100110010110011110110111110010110000010000111101100000001011101101101101011010110110101010011011101111011011010101011010101110001101111100000011010000011110100110010101100110100111000011011010110000000001101010000101101111111101010111001101001011
0111101010000100011101110101101100110011101110110111001110101011110111001110011010010110100100011001110100000001101001010100101010111001110100111110000111001000100010001111011001100011100011011110111111010010010001001110011010111111011101001110111101011000
1110010010111100010101100100100011001110110100010001100000010100011000111000011110101100111010000000110100111000101010111001011001011000000111000010101011110010010110000110010100101001000101111101100111000001001011100101001101111010001001001011101101111100
1010000110110010011100000100011000000010001101010000101000000110010010010011000100011001111010101011010000011011010000110001000101001000101101000101001000111000001111101110010011101101001111111101101111001110000010001011011010111001101111101001101100001010
0111001101000010101101111000011000001100010111101111110011101100111000100011111011101011011010100001000111001000110011111101001101010000011010100001100101110010010010000001011001101111011001111010111111100111001000101111011010010110100011110101010000100011
1000111100010011111101001010001011000101110111100011110110001000101110110011010010100001000011011000010001000000110001011101111011110010010010001000100100010001100000011001011110111011011001100000000001001111011100111100111010010010000001101101010010100001
0110101010100101101011111001011111101110011000101100110001011011000011000110010000010000101101001101101100101100101101011011101111000001011010100101010110100111111101010010100001011011101111011111000100111100001011010000110110011101101000001011001001100100
1110010110000101110010010111100000010011000001100000111000001110000101110001111111100101000001101110001101101100000110111110000110100010000111110000010001110011010011100100110001010001101001011111000100000100101110001101011000101100011110100010001100100001
0100011010000001101111000010101100111110111001101100100110010001101110100111100001010101100101100010101110100010101101101100100010110000001101111000111100100010010101011110110000011010110010111010000000110101111001110000000101001001100011001010001000100101
0101110110011110010010001110111001100111111010100110000001101010001011011000111001100000110111011001000000100001001001000101111111100111010110101000000111000111110111100000101011111011010100110101001010010101101110011110010011000111100011110110001111110001
0110100001011110001001101000100010111110110111110100001000011101010001000100011100011010001101110101101100001000010100111110110101110001000001001011101001100011101010000100000011101011101011101111101101101001110010110010101101001001111011111010110100010000
1000110111100101111111111101110001001011001100100001101111001111111111001011011110000010011011001111011101110000010100110010101000111000011011011101101111001111100101101011011001111011100000110001111011010010010101001010010010101111110000110011110011001001
0111011010100100000110101101000100101010101000001100100001100100010001010000101111001000111101010111001110111010100100101000000011101111001110100001010010011010011001101010101001011100111110111101010110100010010001001011010100101101100010000011001011001101
0011011101110101000000101001000010001011001100011100110010111100000111001111100110101000111010010110100111001110010100110111000001000110001101000011011110111011110001000000001011101000111110111101111110000111101000011010001110010000100010110110011100000100
0011101001101101011101110000100100111110010000111001011010011101110111001110110000100110001100001101110100111001001000011010101000011001110101110011100011001101001110000111011111100111100111011011100111100000000001100010101010100100011110011111111101101010
1000000100011101110100110100101100011001101111010000001000100100010011100111011111111000001110111111011001011101000011100011000111111001100111011010001001111001010100110101111111101011001101101000101001001000110110110001001101101000010110110100110111010011
1101001101001010100001011111010011010001011111011000010001011010001110000100100001110101110101101011001010110111111110100111001010100111101101011001001110011110100101111010100011011100101010100101011110110100010110101011110111010111111110100111001010101110
0010111001011000101000110010011110111101010100001110000011010011000101011000011010110000101111101000000000011010111100011110111011001001111011110011100110100111001111100001000001101010010111100010011000010101001001000110111010001001110010101111010100111010
0101011011101001000001011011001100011010011000111100110011001000011011111010101101111000011100001011001110101110101010101011100011001001111010000101010110010111111111010010111101011100100100000101100010110100011100001010000100000001111100001101011001000100
1100101110011010011001011100010010000111011111000111010111011011101000101110011111010001011010001001111010011101000010110001000110010010100000001111111111101101110001011111001110111010111000110001001000001011001100101101000101010010011010110010000011100001
0001101101001010011101110011111010000000010111011111010100001110111101011101000111010111000011100001111010000101110011110101011000110100000101110010100001001110110010001011010010100110100001001111000011000111100010110111001100100110011110110001101110111010
0010100000110101001100110000001101101110000100111001100010001100110110001010011110000000111010001011000101011000010010011010001101001001110001010011100011111111101100101001101101101101011001111111100100101010101000001111111010011001011011101001110010010101
0011001100010001011100000000001001001010110010011110010111110100100000011101010010001011011001001001010100011011001011100001001000011110100101110001001110000010110110000011010111100110100000001110111011000100101010100111001010100010111010100101001111000010
0010111001001101001101101010100100111000100000001101111000001101011111010110000101011110010001110110001110100000101100111110010000110010000000100111101101000111101011000101100001011000010000101100010111110000111110110011111111000100110000001010110100110101
1000000010100101001111010001110001011110110000010001011000001110100110110100111100101100010001001110001111111101000111001100010110110100000001100111000001010011010101111010110101000111101111001001000111100000010010000111001110101100001111110100101101010011
1101100010010100111101110111111110110000110111100010010100100011111100100100011001011111000010001011110001100001001010011101101011111000110100111000101001001110001111110101111000110011010111010110100011111010000111110101100011001110110111011010101100111011
1011100110101010011100000010100011011000100111010001010100101110111000100101110011101111100011110001011011000111010011110101011100110110000101111110111001000101010010001111111010100111011000011000110011001100100100111111001001101010000111100100110111001011
1000101010111101100011001101010001001111111000001001110011000100000100101000100001000000111011010101001011110110100100111011110110000110111010001001111111110011111101010011111000011000110110110101000100111110010100100001111101011001001000001010000011010101
1000100100111000101111010000001001011111100000110010111010010111110110001100000000000011000111011101110001010000000000011100010100011011010101100010101001101101000101010101110010100001001110101010010101001010100110011111001000111011001010101100111101110011
1111011100000100000010001111000011000011010110001110000010111010011110001011100110100101111010110011011110000011001001100101011111000110111001100101111110110010011010001010101011111010111000111001101110011101111001001100101010010110101011000101010010010110
1000000111111100101010010001000010001011101010000010111010010100100010111100001100111000000001001100000001011001000100101111011110000010001111001011100111100001010011111111110110101110101110000110001000000000100110111111111110001010011000101100001011000001
0101100000011100001101101101111100110001101111110111001100101011100011000000010011110110100100110110110001111001001000011010100010011011110010001110100001011000000000101111001100111011000011110110100001011100010101011111110000001001101110011101100101111011
0011011011000010100001100011001000101111100010001011100111100100001001011111101101000111011001101000001000001110011011100101000000100110111011001011001100100011100011010000100010111110111110100101001100110111011000100000100110010110100011110010011101010100
1011001011001010100010011010001011001011000000001100010011011101000101101111101100010111011010101011001100101110100011101111101100100110011101010011101110100111110111100000011011001110110100001001111100010110101010110010001111010010111100100100001001000101
1100110100010000111111110111111001110101100111000110111100011001111110100101011011110111000011000000000001000001001011000111000010110010010110111110001001000100000101001111011000000011010010010110010001111001110111111101110000110011011101010101110110111001
0011000001101100100000110011111110111000101100110100000100101110010110011000100010000110101101101001001101100010111100010010101001101111110011010000110010011110001110101100100101101000100110111110000111110111110011001010111011101001110010000011110101111110
1101111011100000011100001001110000011011000100001001001101100111010111100101011110111000001010110111010000010011000010010011000100011101110011001101010110011001011000111001000100111001010010110001001001100011100000110010110110111111110001111100100111100001
1101010110010000100111001110011110100100110110100011010011101100011000100100111111000011010100111001111001001101001011000101111111101101001011101011000100000010010010110001000110100011111101010100111010100101111110011110000010100001100010100001010010010101
1010011111110010111011011010101001000011110111001110111111011000101100111101001011011111000110001011111011010000100000110001001111000010111001001001111110101011000001000011110110101010111110110000011001011100101110011111111100011110011001100010010011100101
0010101111111101101011011000001000001010010010001110011011010101100010111111111100111101000100101100100011111100100111101111000101000010000101101001111100101101010101000111111011001101100111110010111100010000101110101001011111010010111111101000011011100100
1101000101001010110010010110011001000011011111010111010101101010101010111001101010000111101110001011010011010110011110100101011101000110010001001000101110001010100100100111110010110010101010110100001001011100001001100101101011111110100010110000000011001101
0100111110001110000011101110100110010111101010011101110100000001001101100100101001111111100100111000111010100111011110000101100010101100100101111000010010000010010011100010100101010100110110010110000010011011110011111000111011101110111110100010001001111011
1010011111110101111010111000100010111010010000111001011010010111000101110111111101011101111101001110101111111000100010101010100000000011100001110001000101110001110111011100000111001101001111111111001100100010011010111011011110010100111111110001001010100100
0101011101001010100111011110011100101101010011101100111011001011001001111111110101011101010100001001111010101111110110101111010010100010000100101001011111101001110101011110011010101100100110000001000010000000001000011000100011110010111100010001010010101100
1100100010100011100000000111000110001100100111100100110110101100011000110011110101000001011011010101001110100110100011001101110111011100101000010011101010001111011000110001000000011101001101110001000010100001001111110011000100011100001100000100110000000101
1011001101000011011101011010110001101111000101110110011111010110100011011011011000010001011001001101111001011101010011110001011100111010000100111011100101011100111110001110010011100001101010000011110011000000101010010111000111110010010101000001001110101011
1101000110100110010010101100010000110111100001011101011100100010000011010101110001010111100110111011111110100011000111100110111010101100001111110010011000000110000110110010100101000110100110001011011110000110101010110010111100000001101110100011101100100010
1000000000111000101101000000001010001101101100000011100110110110100000101010000010000010100011011010000001010010001001100001111001011110010010100010000000111011010100110001110100111010011000101000100101011001111101111101011110101010000000101010110110010111
0101100110010110000111100100011010010010101101011110100100101001011100000000010011111010101110111010010010000011001000110101111110101000111001101111111010011010101100001011000111110010110010010000111010011100011001000110111100011010100001010111000101000011
0100111000001010110111110110101001100001100111101110100101100011111011110101101111010001000110100011111000000100111000010101101011101011111001101001110100100111101110011001001110111010010001100100111001100101001111110111110010010011110000001011110001010100
0101001100111110101001001111010001000111000010001110010111001000001000101100111011111001000001001000010000010111101001000011001101001100111110101101101110100001011000101011011100101110101010010101011000011101000111101111100110011110111010010111001011100100
1010110101010011101101001010000001001010100111100010001011010111100110101111001110011011000011010000100011001000111100111111001111010000000011101111100101101101100011001001011010101010111001010101111100111111111110001100001101110010011010111100111011010000
0101111010101100100111101101011100111010100011110101000100100010011101100110000111011010100101110110001001101100101000011010101010111011110010011010110000001000101101110100110001011111001111101110100001110010110101011000110100010101100110011011101000011001
1100110111101101111010011111011110010101011001011000010101000110011101000011100101010101111110010110100011100110101111001110000110100100111001000001011110110111111101111010101100011100111001001000011010011000011111110001011101010101100101011001010011001100
1010110000001010111101110010101001101010110001110111100010010101110010010111000010000110001111110110101101000000101000111110011001011011010101100010101001101011001111000000100101100000000011101010010111110011111001011010011110001101010010001010110100110000
0011101101000010010010011100010011110011001111011011110101101011000101011101100010111111001110101000010000001111110110100111001101101000000101011011111000011111100010101111010010100100101010010111001011101110000101111010100010110011101111000111000000101010
1110011000010010100011011010001010001101101010000110000011010100001100101111101011101001011001001000001000000111111001101001010011100101111000100110001110111011100010010011101000111000010110101001010000011111101010000101110110111110110010111010000001000101
1100010010010110101011001010100011001001100010110110000110111110110101101000100111100000110001010100100111101000101001011101111111110110110010100010000101111100010101110001001000111011110001001010010110011011111010111100110100001001010000101000010010110101
1100101110111101011101010010111011010111001111000001100011010000101101110010011010011001011111001100100011001100100111000000100111011000000101001011111000100001101001100111111110001001101000100111000001011000010110010111111100001001010001111101000001000111
1011100101101110010011111111110000010010111001100000011111100110010111100100010101100111010101010111001111110101000110001010010110111110000111011110010011010001010101100110111111000011101000010000010111101010000110011001000110101000001100110111101111010010
1101001111101100000000010110000011011111011010100000110101111110001111010111011011000010111111111110111001111101000110101010000011010101100000001101010110100001100011011010011011111110010100010011011110000001001100111001100010001001111110100110101110110010
0000101100100010011101101001110010011101100110010010011100010101101110000001010011001101010011000110011101010001110001011111011000111110100110110100100001000000010010011110011101100001010000011110001111101010000111001101001110111110000010010001111110100010
1100001111100110110010111101110110010011001100000000011000011110011010100111111111010101010101010111111111111101000110001010001110100010100010001101000111000100111011001010111111111111001011011100001000101011011110001101000011010101111110010111101001000111
1000010011001101011001000111100011010010110100001011100110101101111111001010111111100110111011110100111101011100010010010011010111110001100101011100001001010111001001000100010001100001110101111101110111111111001101110101000000101010001100001100110110010101
0110111101000101011111011001000011111110010001101100111011001111110000110100001101010110100101100101011100011001000110111010111000110011100001011011100101101001011111010100001011001011100001100011110100001001101101111011111011011111110110101011100000110100
0100100110111101011001011101110100111110000001111100111000011111100001010100001001111110100100111110011100110011000101011010100000101001000101011001010011000100000111011101101001001101100111001110000110110000010010100011101010101001110111011000100000110010
0100001110000110000010101111100100111010001000110100111001101111010100010100111000111110110101100100001110101100101101011110101010101101101100010111111011011010101101110100100101011100100111000111010110110000000011011011000100101101110010010011001000101011
0100110010011101001011001010001110111110110000111101111001010101111111100110000100000110010001010100001110100001101100111110010010110011010010110100011111101101011101011100100101011001010110011110110110110000010101100001011100100000111000000000110001011101
1000110000010101111101100010110001010001101011100111001000111100111111100001010010101101100011110111000011010100111000011100000010010110010010011100011000100010101101010001101110011000010000100110000001011010010101110101111101010110000001111000110010011101
1011000110101100010111110110110111111000111000111100001100110001010111010001101001100100100100111101111111100110011110000100110000111111100001010010011010010100011100101100100001011101100111001010000011110000110001001010000001101001100101000100101101001011
0011010000110101101100110001001110101111101000110100100010111110000001011010111000101010101000101111000101011010111000000010101111001001111011000001001100110110101110111010101000101000111101101010111100010110101001000110011000010100100011101110010011010101
1001111101111000100111010001010000001100001010100111010100100010110101011101001011101011111011111111111001100011000100001111011101110001101111000101010010001110000100110011011111100011101010000110001001010010001000000010010000101110010011111011011011001001
1101110000011010100111100111001111000101101110100110100111100000101011110110100111100001010001111001101001000101001011000001111111100011011010101110000100010010110010101001010010100011011100010000101011101111111110111100100011100011101001111011000010000001
1101010000001110000011000101110101010110111011001100100100000001000010000100101001000111100110111100101000100111011101110100011010111111101011010010000010000110001110011100101011011100011100100100011111101001110011010100101000101010011111100010101000110110
1101100100000010010101101110110100110100110101111110110100110001111110000010000111011111100110010001010111001101010111010100011010111101010111001100000001010000001110000110001010100111000001011110101111000001010001011011010001110000001101010111100111101010
1100001111001100100000000110000100100000010111101001010000011010001101100111110101111111110111000101111010111100100110001000110111000000000100011000010111100001111001000010000111111111001001110101000001100011011010001101010011010101010100010001000001110101
0010001110000010100110000011000111000111010000101000100110110000111000101110001100000111011100100001101110100111110110011101010110001110010101110011101101110010011010010100110100001101100001101000100110000101111111100100110011101100001011011000011000001110
0000000000101111011010101100111001001111101001011001010100000001110001000000001000001110100110101000110101110010101101010101010010100011100111010010010110000110100000110110000110010000010011111011101100111100100010010001100100001011000011001011100001010100
0011100000100101011100100100111111111010111000010000101101111110110100010101101000101000001110011010100101100010101000010010000101110100001110010000111010010000001000110100110100000001001100001010101111111110000001110010111100101101100011011000111101001010
