11000100101010100010011011101011
10100100110001100000000101100000
10001100101111100111100011011111
01100001010111011111010100010011
11011000111011000111010111100101
10000110111100010101101000100100
10011000110111111111100111010001
11000100001110001010000100001000
01001000001110100011101110000001
01000110111111000111000010001010
00011110011000101001010110001111
00100100011100010100001000100100
10001111101011100111101000011010
11001111001011000100100011011000
01010111111111101101000010101110
11000100110001101001101000100101
11001010111011111000010101111000
00100110001100111010010001010001
00001101110100011111100111110110
10101110001011001010011110111000
10010100100000111101001010001101
01011001101010101100111010011100
10000110010011111010011010010000
11001100100010000010110111111101
00001110101001010111000101001011
10101010110111111010101011001101
10111011000100001000110101111010
01110011110111110011011001010101
00010010111111111111011111011100
11100100111101010011011110100111
01101111000101110110000100110111
10000110101000011100100100111000
01100111001000110010010000110010
10001110100111101110011101111001
11001000100000110000100110101101
00001100101011010110000011111001
11100101001100111010101101001100
01101001000101100011011110111110
11100010110111010111111111001001
00100110101010111011010111010011
11101001000101000010100011000110
01110010000000011010101101011011
10001111100010011000100101100101
10001011111101100010001110010101
01110011001101000111101101011111
10101000100110001000101101100100
11011011110000100001000100010101
00110100110100101100100001111000
10111100100111101010111001111111
10100110011110001111000100000100
10000110010001111110111111011001
10111011110100001001111100010011
01010001111110111111001010010001
01001000101110110010011110101110
00011101100100100000111101100101
01110101110011010010110011110011
11100011010011001100010000001010
10000101001101000110101101110110
10110000110000011010010101110001
01010001111001100111110011010010
01010000011000111001000110110000
01100000110110000111000000110011
01111000110110100101001111000011
00110110101011011110011011011011
01000001001010101000111000001001
11000101011010010000000000000110
10010011100111111111010011111011
11100110111011010111010101100111
00100101100000111000111100111000
00001110101100100011111100101000
01111011110010011111111011110001
00111011100100110111100101011001
01101010111011100010111010101010
00100011001101001111101000000010
10110110100001001001111001011000
10001000101101000101011000011100
01100001010101010000010001100110
01110011000100000101101010111100
00101000001100100001011110111111
00110111010100101100011100010010
11010001100111001101110011011000
11001110111100110001010100100111
11101011111000110111011100010111
10011111000101011100110001011100
11011000010011000111000011110001
11010010101100100011011100101010
10101100111000101001001111100000
10100100011000111001111101011100
00110111011101110101011011110111
01100100000100111001001100000101
10100110001001001100000000111100
00100011111001000101011001010011
10100100111000100001110011110110
10001001000110001010011000100010
10001010001000011101100100011101
10000110101000001110001100001000
01111001100100101010100101000100
11001100101010000010000111011001
10011000110011100000110111100010
11010101100010111001110101111100
00111011111100110101101101001101
11010000000010000111000011111100
11000100101011010000011100100000
01101011001111000011101110001010
10000101111010111111010100000101
00110110110100111000010101100011
01101011101101011000111111111010
00000001011000111001010100000011
00000011001001000011011000101100
11001000101010010110010001111010
10001010110100000010101001011110
00001100001001001011010011101010
00010010001110000010011100100110
00111110111001110101100010111010
00010111001011000111010010010010
10100000010011010110000011000011
00000011101101000100101011000011
01011001000100100100111011000100
10000010000011001110000010000010
01111000000110001111000011010111
00110001010110010110001100111110
10111101110100100010111101111101
00100100011101111100000100100001
10001000001010000001101000010100
00111000011000101000110111100000
11100000011000110100101100110110
10010010010000010010000010010111
00001010010111001111001010000001
