11001000101011100000011001101011
10100100110011110000000100100000
10001000111011100111100011110111
01100000011111011111011111010011
01011000101011010111010011100111
10000110111000010101101000100100
10011000110111111111101111010101
11001100101110001010000100001000
01001000001110100011101110000001
11000110111111100111000010011010
00011110011000101001110110001111
00100100011100010100001000100100
00001111101011100111101000011010
11001111101011000110101011011000
01010111111111101101000010101110
01001100110001001001101000100001
11001010111011111000010101111000
00100110001100111010010001010001
00001101110100011111100111110110
10101100001011001010011110111010
10010101000000111101001010001100
01011011101010101111111110011100
10000110011011111010011010010010
11001100100010000010110111111101
00000110101001010111100101001011
10101010110111111011101011011101
10111011000100001000110101111010
01110011110111110010011001010101
00010110111111111111011110011101
11100100111101010011011110101111
01101110000111110110000100110111
10000110111000011100101100111100
01100111001000110010010000110010
11001110100111101010011101011001
11001000100000110000110110101101
00001100001011100110000011111001
11100101001100101010101100001100
01101001010101100011011110111010
11100010110111010111101111001001
00100110111010111011010111010011
01101001000111000010100011000010
01110011000001011010101101011011
10001111100010011000100101101100
11001011111101000010001110010101
01110011001101000111101101011111
11101000100110001000101101100100
11011011110000100001000100010101
10110100110100101100100001111001
10111110100111101010111001111111
10100110010100001110000100000100
10000110010001111110110111011011
10111011010100011001111100010011
00010100111110111111001010010001
01001000101110110010111110100110
00011001100100100000111101100101
01110101110011010010110011110011
11100001010001001100010000001010
10000101001101000110101101110110
10110000111000011010110101110001
01010011111011100111110011010010
01010000011000111001000110110000
01100000010110000111000000110011
01111000110100100101001111000011
01110010101011011110011011011011
11000001001001101101111010011000
11000101011010010010010001000110
00010010100111111101010011110010
11100110011011010011010101100111
00100101100000111000111100111000
00101110101100000011111100101100
01011011110010101111110011110011
10111010101100011111100100011001
01101011111001000011111010111010
00100011001101001110101000001010
10110110000010001001111001011000
10101000101101000100011010011101
01110001110101010000010001100100
01110011000010001101101000011100
10101000000100100000011110111111
10110011010100101101011101011000
10010001100111001101110001011000
11001110111100110011010100100111
11100011111100110111011101010111
10011111001001001100110001011100
11011000010110000011000011110001
11010010101100100011011100101010
10101100101100101001001111101001
10100100011000111101111101011100
00110111011001111101011011110111
01100000000100111001001100000101
10100110001001001100010000111100
00100111111001000001011011010011
10100100111001000001110001110110
10001001000110001010011000100010
10000010101000011001101100001101
10000110111000001110001100001000
01111001100100101010100101000101
11011100100010000011000111010011
10001000110011100000110111100010
10010101100000111000111101111100
00111011111100110101101110001101
10011100100111000111110001110100
01101100111001010000010001000000
01101011001111000011101110001010
10000100111010111111010100000101
01110110110100110100010101100011
01101011101101011000111111111010
01101001001110100001010001110001
00000011001001000011011000101100
11001000101010010110010001111010
10001010110100000010101001011110
00001100001001001011010011101010
00011010000110000110011100101110
00111110101001110101100010011010
00010111001011000111010010010010
10100010010011000110000011000011
00100011101101000000101011000011
01011001000001100100111011000100
10000010000011001110000010000010
01111000100110001111001111000111
00010001010110010110001100111110
10111101110100100010111101111101
00100100011101111100000100100001
10001100001010000000101010010100
00111000011000101000110110100010
11100000011000110100101100110110
10010010010000010010000010010111
00001010010111001111001011000001
