01001100101010000010011011101011
10100100110011100000000000100000
10011100101111100011100011011111
01100000010111011111011101010011
11011000101011000111010011100101
00000110111000010101101000100100
10011110111111111111000111010101
11000100001110001010000100001000
01001000001110100011001110000001
01000110111111000111000010001010
00011110011000101001010110001111
00100100011100010100001000100100
10001111101011100111101000011010
11001111001011000100100011011000
01010111111111101101000010101110
11000100110001001001101000100001
11001010111011111000010101011000
00100111001100111010010001010001
00001101110100011111100111110110
10101110001011001010011110111010
10000101100010111101001010001101
01011011101010101101111010011100
10010110010011111010011010000010
11101100100010000010110111111101
00001110101001010111000111011011
10101010110111111010101011001101
10111011001101001000110101111010
01110011110111110010011001010101
00010010111111111111011110011100
11100100111101110011010010101111
01101111000100110110000100110111
10010110101000011101100100111100
01100111001000110010010000110010
10001110100110101110011101111011
11001000100000110000100110101101
00001100001011100110000011111001
11101101001100111010101100101100
01101001010101000011011110111110
11100010110111010111111111001001
00100110101010111001010111010011
01101001001111000010100111000110
01110011000000011010101101011011
10001111100010111000100101100101
10001010101001101010000110110101
01110011001101000111101101011111
11101000100110001000101101100100
11011011110000100001000100010101
00110100110100101100100001111000
10011100100111101011111001111001
10100110011000001101000100011110
10000110010001111110110111011001
10110011110100001001111100010011
00011001111110111111001010010001
01001000101110110010011110001110
01111101100100100000111101100101
01110101110011010110110011110011
11100011010001001100010000001010
10000101001101000110101101110110
10111000110000011010010101110001
01010001111011100101110011000010
01010000011000111001000110110000
01100000110110000111000000100001
01111000111110100101001111000011
01110010101011011110010010011011
01001101001111111011111010011001
11000101011010010000000000000110
11110010100010111111010011111011
11100110111011010101010100100111
00100101100000111000111100111000
00101110101100101011111110101100
01011011010010011101010011110011
10111010100100011111100101011101
01101011111001110010111011101010
00100011000101001110101000001010
10010110100010001001111001011000
10000010101101001111011100001100
01110001010101010000010001100110
01110011000110001111001010111100
10101000001100101000011111111111
10110011010100101101111100010010
11010001100111001101110011011000
11001110111101110001010100100111
01100011111000110110011111010111
10011110000101011100110001011100
11011000010010010111000011110001
11010010101100100011011100101010
10101100111000001001001111100000
00100100011000111011111101011100
00110111011101110101011011110111
01100100000100111001001100000101
10100110001001001100000000111100
00100111111001000100011011000011
10100100111000000001110001110110
10001001000110001010001000100010
10000010101100010101101100011101
10000110101000001110001100000000
01111001100101101010100101000100
11001100100010000011000111010001
10001000110011100000110111100000
10010100100010111100110101111100
00111011111100110101101110011101
11101101000010000111100001111100
11100100101011010000011001000101
01101010011111000011101110001011
10000101111010111111010100000101
01111110110100111100110101100011
11101011101101011000111011111010
01101101001010110001010001010001
00000010001001000011011000101100
11001000101010010110010001111010
10001010110100000010101001011100
00001110001001001011010011101010
00010010000110000010011100100110
00111110111001110101100000011010
00010111001011000111010010010010
00100000010011000111000011010011
00000011101101000000101011000011
01011001001101100100101011000100
10000010000001001110000010000010
01111000000110001111001011010111
00110001010110010110001100111110
10111001110100100010101101111101
00100100011101111100000100100001
10001000000010000000111000010100
00111000011000101000110110100000
11100000011000110100101100110110
10010010010000010010000010010111
00001010010111001111001010000001
