11001100101011000010011001101011
10100100110001110000000101100000
10001110101111100111100011110101
01110010010111010111011111000011
01011000101011010111010011100111
10000110111000010101100000100100
10011100110111111111101111010001
11000100101110001010000100001000
01001000001110100011101110000001
00000110011111100111000010001010
00011110011000101001010110001111
00100110011100010100001000100100
00001111101011100110111000011000
11011111001011000110100011011000
01010111111111101101000010101110
11001100110001001001111000100101
11001010111010111000010101111000
00110110001100111010000001010001
00001101110100011111100111110110
10101100000011001010011110111010
10010101100010111101001010001100
01011011101010101110111010011100
10110110011011111011010010010011
11001100100010000010110111111101
00001110101001011111000111001011
10101010110111111011101011001101
10111011000101001000110101111010
01110011110111010110011011010101
01010110110111111111011100011101
10100100111101010011011110101111
01101110000111110110000100110111
10100110101000011100100000111100
01100111001000110010010000110010
10001110111101101010011101011001
11001000100000110000110111101101
00011100101011100110000111111001
11101101001100101010001101001100
01101001011101100011011110110010
11100010110111010111101111001001
00100110111010111001010111010011
01101001000101000000100010000110
11110011000001001010100101011011
10001111100010011000100101101101
10011010111111100100000110110101
01110011001101010111101101011111
10101000100110001000101101100100
11011011110000100001000000010101
10110100110100101100100001111001
10011100100111101010111001011001
10100110010010001111000100001110
10000110110001111110110111011001
10110011010100011000111100010011
01011001111110111111001010010001
01001000101110110010111110101110
00011001100100110000111101100100
01110101110011010000110011110011
11100001010101001100010000001010
10000101001101010110101101110110
10111000110000011110110101110001
01010001111011100101110011010010
01010000011000111001000110010000
01100000010110000110000000010011
01111000111110110101001111000011
01010110111011011110011011011011
11000001000000111001011000011010
11000101111010010010010000000110
01010010100001101111110011110011
11100111111011010101010101100111
00100101110000111000111100111000
00101110101000101011111110101000
01111011110011111011010011110001
00111010100100111111100100011001
01101011111111000010111011101010
00100011001101001110101000001010
10010110000001001001110001011000
10000010101101001111001000001100
01100001010101010000010101100000
01010011000111001100101010011101
00101000110100100010011110111111
10110111010101101101111101011001
11010001000111001101110001011000
11101110111101110001010100110111
11100011111100110111011110011111
10011111001100011000110001011100
11011000000010000111000011110001
11010010101100100011011100101010
10101100100000001001101111101000
00100101011000111001111101111101
00110111011101111101011011110111
01100100000100111001001100000101
10100110001000001100010000111110
00101111111001000001011011010011
10100100111001110001110001110110
10001001000110001010001000100010
10000111101000110101101100011101
10000110111000001110001000001000
01101001100100101010100101100100
11011100100010001011000111010001
11011000100011100000110111100010
11010101100000111000110101111100
01101011111100110101101100011101
11000001100011000111100001111100
11101000101011010100010000100000
01101011001111000011101110001011
10000101111010111111010100000101
01110110110100010000110101100011
01101111100101010000111111111010
01101001001010111101000001100011
00000011001001000011011000101100
11001000101010010110010001111010
10001010100100000110101001011101
00001110001001000011010011101010
10111010000100000110011100101110
00111110111001110101100010011010
00010111001011000111010010010010
01100000011011010110000001000011
00101011101111000100101011000011
00111001001000100100111011001110
10000110001011001110000000000000
01111000000110011111001111000111
00110001010110010110001100111110
10111001100100100010111101111101
00100100011101110100000100100001
10001100001010000001110000011100
00111000011000101000110110100010
11100000011000110100101100110110
10010010010000010010000010010111
00001010000111001111001011000001
