10101100101111000010010100111000
10100100101001000000110100100000
11011100100011010111010111010011
01110011110111010111011111001111
01001001011011010011001011100111
10100110111100010101000100100100
10110110110110011110111111011001
10001100001111001010000100101001
11011001001110101011001110001000
10011010111111000111010010011000
00000110011000110101010010010111
00100111010001010100000001100010
00001111001001000111111010011000
11000100001011000110100011000110
01011111101111000111011010001110
10001100111000101000110100101100
11011100101000101000110101111100
00010100011000111000000101010101
01101100110100110101110111110111
10101100101001001010010100011011
10010101101010101101101100011101
10011011101010101101111010011100
11010100111011001011010000010001
10001100100010000010110101110010
10101110101001010111110111011101
10100110110110111111001110011101
00111111000000101000110101111010
01111011010110010000101111010111
00011010111000111111110010011001
10100010111100110001000110100010
11101100111001000010000100110010
10100111101000111101100000111100
00100111011001000000010000110010
01101010110001101011010110011001
10001100101000110000110110101101
10011100101011101010010011011001
10110000100100101000101100001101
01101011011101010000010010110010
11110000110110111111101111001101
00110110111010111011010111010011
11101001000101000000001011100110
01111001000100001000101101111010
10001110100010101010100101111000
11010010100110001010000101110001
01110011010100110101101101010011
11101000100100101000110101101100
11011011110100100001101000010101
10110100100010101000100101111001
00010100100100101010111001011001
10100101011010001110000000001001
10011110100011101110110111011001
00100011110100101000101100111011
01010000011110111111001010001001
11011000100110100001111111101111
01001101011100110000111101110100
01010100110011010000010011110011
01100011010101001100001000000010
10100111000101010100100101110010
11111110000000000000110101110011
01011001001011000011011011000010
01010000001001111010100111110010
11100100110011001111000110000011
01101010111111110111011111000011
00101110100101011110010011011011
00011011001101101101011010001000
11000100010011110101000000000101
01010000110011110001101011010110
11100100011011000010000100100011
00101111110000101000111100111100
10101010101000100101110100011000
01011001010111110011001011010011
00101110100110001110000100111001
01101011111001000110111011101010
00100111000101001111001000011010
10110111000011001000101001111100
10101011101100101111000100001100
01110001010111010000000101100110
01111001000110111101101011010111
10101010110100111010000110101111
01110111010110111101101000011101
11011101000011001100110011010100
11101110111100110001100101110111
01100010111100110101010110111011
10111111001000111100111001111100
11000000010111011010000111000011
11010010101101100010010101101010
10101100111000101000110101111100
00100011110100111101101101111100
00110111011001110101110001010111
00100101110100101001001100101101
00100110001001001110000000111100
01100111011001000101001001000110
10000110111001010101010001110100
11101001000101000000101000100010
10000111101100011100011000001100
10100110011011001110000100001001
01111001110110101000101111110101
11011100100011100010010111011001
11011000101011100000111111100110
00010100100000111000100101110101
01101011111100110001111100111111
11010100000011000000110011101010
11001011011011000101001010100110
01101011000111000011101011101011
10010100111011111111010010000101
01101100110100110000100101110101
01101111100100000000111001111010
00010001010001001001101001100000
10101011001101001110011000101100
10001100001011001010110001101010
10101010100100001111110100011001
00001111001001000000010001101010
10101010001100100111111000101010
00100111001001110101111010011010
01010110011011000111011010000111
11100100010111010110001001011011
00101011100101010110110011100011
01011011000001100000111011101110
10000111001111001110001000000010
01010011010011011101101111000011
01100101011110010110100101111011
10111000110100101000110101111101
10100100011001001010000100100001
10001010001100000000111010101000
00111111011001100000110001111010
11000010010000110100101100110110
10010110010000011110000000000101
01000001000111001111001010001001
