11001100101011001010010001101000
10100110101000110010010100100001
11001100111011001011010011010101
01100011110101010111001111000111
01001001110011010111110011100111
10100110111100010101000100100100
00111010110110111011111111011101
10000100101011001010000100101000
11011001001110101011001110001000
10011010111111001111010010011001
00000110011000110101010010010110
00100111010001010100100001100010
00001111001001000111111010011000
11010001001011000110100011100110
01011111101111000111011010001110
10001100111000101000110100100100
11011100101011101000110101111100
00010110011000111000000101010100
01101100111100110101110111110110
10101100101111001010000110111011
10010100001000101101101100001100
10011011001000101001111010011100
10010100011011001011010000010001
11001100100010000000110101110100
10001110101011011111110111011001
10100010110110111111001110011101
10111111000000101000110101111010
01110011010111110100101111110111
00011110110101111111010110011101
11100110111100110101010110101110
11101100111001000010000100110010
10101110101100111101110100110100
00100111011000000000010000110010
00101010110101101010010110111011
11001100101000100000110111101101
10011100100011101010010011011001
10100000100100101001101100001101
01101011010101000000110110110010
11110010110110111111101111001101
00010110111011111001010111011011
11100001011001000000001011100010
01111011000100001000101101111010
10101100100010101010110101111101
11001010100010001010000101111001
01110011010100110101101011010011
11101000100100101000100101101100
11011001110100100001101000010101
10110100000000111000100101110001
00011000100110101110111111011001
10100100011101001110000100011101
10011110100011101110110111011001
00111011110100101000101100111011
01010000011110111111001010001001
01011000100110101010111111111101
01011101010000110000111101110110
01010101110001010000010011110011
01100011010101001101001000000011
10100111000101010100100100110000
00111100110010001000110101110011
01011001001011000111011011000010
01010000001001111010100111110010
10100100010111001111000110000011
01101010111100110111011110010011
00100110100111011110011011011011
01010011001101001111101000001000
10000100010010010001000100000101
01011101110011110011100011010110
11100100011011000010010110100011
00110110100000111000110100111100
10001110101100101001110100001110
01011001010111001011000111010011
00101010110100101010100100011001
01101011101001010110110011110010
00100011011101001110001000011000
10110111000011001000101001110000
10101011101100101111001100001000
01101001010111010000100101100110
00011011000111101101101011111111
10101000110100111010111110101111
00110001010100111111101001010101
11011101000011001100110001011100
10101110111100010001100101110101
01100010111100110011000110111011
10111111000000011100111001111100
11000000111011010111000111000001
11010010101111100010010101101010
10101100110100101000110101111100
00100111110100111000101100111100
00110111110000111101110011010111
00000100110100111001001100001101
00100110001000001110010000111000
00111111011001000101011001000010
10000110111001010001110001100100
11101001000101001000001000101010
10000110101100111110011000001100
10100110111000001110000100001001
01111001100110101010101111100101
11011100100011100010000111011001
11011001100011100000110111110110
00010100100000111001100101010101
01101011111100110001111110101111
11010100001011000110000001111010
11001001011111010101001010100110
01101011000111000011001110101010
10000100111011111111011010000101
01100100110100110000100101110001
00101011100100000000111001111010
00010101000101011001100000100100
10101011001101001110011000101100
10001100001011000010110001101010
10101000100100001110110100011001
00001111001001000000010001111010
10101011101100100110101100001010
00111011001001000101111010011010
00010110001011010111010010000011
01100100010111010110000010000011
00101011100101010110110011100011
01111011001001100100111011100110
10000110001011000110000000000000
01011001010010011111011111010011
01100101011110010110100101111010
10111000100100101000110101111101
10100100011001001110000000100001
10001101101101001000110000001100
00111111011001100000110001111010
11000010010000110100101100110110
10010110010000011010000000000101
01000001100111011111001010001001
