11000010101011001010010100101000
10100100111001011000000100100000
11011100111111100111010011010111
01100011010101010111011111010111
01001001011111100111000111000111
10000110111000010111000100100100
10011110110111111011101111011011
10000100001111001010000100001000
01011000001110101011001110001000
10011010011111000111010010011001
00101111111000110101010010000110
00100111010101010100100000100110
00001111101011100111111000011000
11001101001011000110100011000000
01011110111111111101011011100111
10001100111001101000110100100100
11001100101011111000010101111000
00110110001100111000000101010101
00101100111100011111100111110110
10101010101111001010000110111000
10010100001010111101001000001100
00011001101011101111111010011100
10000100011011100011010010010001
11001100100010000010000101101100
10001110101001011111110111011101
10100010110110111111001110011101
10111111000000001000110101111010
01111011100100010000011111110111
00010110111011111111111111011101
10100110111100110011010100100110
01100100001011010110000100110110
10110111101000011100110000111100
01100111001000100000010000110010
00101110111100101010011101011001
11001100100100100000110111101101
10011100101011101010010111011001
10100111110100101001101100001101
01101011010101000000011010110010
11110010110110011111101111001101
00110110111010111011010111010011
11101001001011000000101010000010
01110011000101001000100101111011
10001110100010111000100101111001
11001010100001101000001111000101
01110011011100110101101001010111
11101000100110001000101101100100
11011011110000100001001000010101
00110100100100111000100001111001
00011100100101101110101001011001
10100100111101001110000100000000
10011110100011101110110111011001
00110011110100001000101100111111
01010001111110111111001010001001
11001000100110100011111111101110
01011101100000111001111101110110
01010101110011010000010011110011
01110001010101001100000000000011
10100111001101010110101101110000
11110110110010001000110101110011
01011001001011000111010011010010
01010000011001111000100110110010
01100100010111000110000000100001
01111010111110110101011111001011
00100110100011010111010010011011
00011001001110000101101010011000
11010100011010011000010001100111
01010101010010111101111011110111
11100100011011010010000100100011
00110111100000111000110100011100
10101111111100101101011110011010
01011000010111100011000111010111
00111111100100011011101110011101
00101010101101000010111011100010
00100011001101001111001000011010
10011110000001001000101001011000
10101001101100101111001100001000
01100001010111010000100101100010
01010011000110110101101011011110
10101000111100100011011111111111
00110101010100111101101001011101
11010001000011001100110011011000
11001010111100110111110101100111
01110010110100110011011111111111
10011111001000011100110001011100
11010000110010000011000111010011
11010010101111100011011101101010
10101110101000101000110111111000
00100111110000111000111100010101
00110111011001110101011011010111
00100100010100111000001100001101
10100111001001001100010000111000
01111111011011000101011011000010
10000100111001011000010001110000
10001001000101001010101000100010
10000111011000001101000100001101
10100110011010001110000100001000
01111001110110111000101101110101
11011100100010101010000111011001
11011000100011100000110111110010
10010101100000111000100101110101
01101011111100110101111110111111
11010000000011000100100011110010
11001001010101010001000010000010
01101011000111000010101110101010
10000100111011111111010010000101
00110110110100111000100101110111
11101111100100001000111101111010
01010101010010101001100000110000
10100011001101001111011000001100
10001100001010001010110000111010
10001110100100001110101100011101
00001111001001000000110001101010
10101011101100101011011110011110
00101111011001010101111000011010
00010111001011010111010010010010
11100110011111001110001011100011
00101011101101010100110011100011
01011011001001110000111011001110
10000000001111001110000000000010
01010011010111011111001011010111
01100101011110010110000101111010
10111000110100101000111101111101
10100110011001001100000100000001
10001100101110001001111000001000
00111110011001100000110001101010
11100000010000110100101100010110
10010010010000010010000000010111
01010001100111011111001010001001
