01001000101011100000001001101001
10000100110001110000000101100000
10001010111011100111100011010111
01100011011111011111010111010111
01011000101011010111010011010111
10000110111000010101100000100100
10011100110111111111101111010101
11001100101110001010000100001000
01001000001110100011001110000001
10000110011111000111000010011010
00011110011000101001010110001111
00100100011100010100000000100100
00001111101011100111101000011000
11011111101011000110101011011000
01010111111111101101000010101110
11001100110001101001101000100101
11001010111011111000010101111000
00100110001100111010000001010001
00001101110100011111100111110110
10101100001001001010011110111010
10010101100000111101001010001100
01011011101010101110111010011100
10100110010011111010011010010011
11001100100010000010100111111001
00001110101001011111100111001011
10101010110111111011100011011101
10111011000101001000110101111010
01110011110111110110011001010101
01010010111111111111011101011101
11100100111101010011010110100111
01101111000111110110000100110111
10000110111000011100111100111100
01100111001000110010010000110010
11001110100101101010011101110001
11001000100000110000110110101101
10011100001011101110000011111001
11101101000100101010001101001100
01101011011101100011010110110010
11100010110111010111101111001001
00100110111010111011010011010011
01101001000111000000100011000010
11110011000000001010100101011011
10001111100010011000100101101101
10001011101101101010000110110101
01110011001101010111101101011111
10101000100110001000101101100100
11011011110000100001000000010101
10110100110100101100100001111001
10111100000111101010111001011111
10100110010100001110000100001100
10000110010001111110111111011001
10111011010100011000111100010011
01011000111110111111001010010001
01001000101110110010111110101110
00011001100100110000111101100100
01110101110011010000110011110011
11100011010111001100010000001010
10000101001101000110101101110110
10111000110000011110010101110011
01010001111011100111110011010010
01010000011000111001000110110000
01100000010110010110000000010011
01101000111110100101001111000011
01110110001011011110011011011011
11001000001101101001111000011010
11000101011010011010000000000110
11010010100100111111010011110001
11100111111011010011010101100111
00100101100000111000111100111000
00101110101100101011110100101000
01111011010110111111010011110111
00111010110100011111101100011101
01101011111001000011111010101110
00100011000101001111101000000010
10110110000010001001111001011000
10000000101101001101001000001100
01100001110101010000010001100100
01110011010110000111101010111100
00101000101100100010011110111111
01110111010100111100011101011001
11010001100111001101110011011000
11101110111100110001110100100111
11100011111100110111011100010111
10011111001100011100110001011100
11011000010010010111000011110001
11010010101100100011011100101010
10101100100000101001101111101000
00100101011000111001111101011101
00110111011101111101011011010111
01100100000100111001001100000101
10100110001001001100000000111110
00100111111001010001011001010011
10100100111001110001110001110110
10001001000100001010011000100010
10000010001100110001101000001101
10000110111000001110001100001000
01111001100100101010100101000101
11001100100010001011000111010001
10001000110011100000110111100010
11010100100010111000110001111100
00101011111100110101101100011111
01000000100111000111110001110000
11100100110001010000010000100100
01101011001111000011101110001011
10000101111010111111010100000101
01110110110100110000110101100011
11101110101101111100111111111010
01010101001010000001010000110001
00000011001001000011011000101100
11001000101010010110010001111010
10101010110100000110101001011101
00001110001001001011010011101010
00110010000110000011011100101110
00111110101001110101100010111010
00010110001011000111010010010000
11100001010011010110000010100011
00101011101101000100101011000011
00011001001001100100111011000100
10000110000011001110000000000000
01111000000110001111000111010111
00010001010110010110001100111110
10111101110100100010111101111101
00100100011101110100000100100001
10001000001110000001100000011100
00111100011000101000110110100010
11100000011000110100101100110110
10010010010000010010000010010111
00001011010111001111001011000001
