11001010101011001010010000111001
10101110111001111000000100100001
11001100101011010011010111010001
01000010110111010111011111010011
11001001011011010011011011000111
00100110111000010101000100100101
00011010110111111010111111011101
10000100001111001010000100101000
11001000001110101011101110001000
10010010011111000111010011011011
00000110011000110001010010010111
00100111010001010110000000100110
00001111001011100111111010011010
11001101001011000010100011100010
01011111111111001101011010100110
10001100111001101000110100100100
11000100101000101000110101111000
00010110011000111000000101010000
01101100111100111111110111110111
10101000101011001010010100111000
00010101101000111101001000001100
00011011001000101001111010011100
10010100011011101011010010010001
11001100100010000010010101101100
10001110101001011111110101011001
10100010110110111111001111011101
00111111000000001000110101111010
01110011000110010000111111110111
00010110111010111111111110011001
10100000111100110101010100101111
11101100011001010110000100110110
10010111101000111100110101101100
00100111001000100000010000110010
00100110110101101010010101011001
11001100100000100000110111101101
10011100101011101010010111011001
10110001100100101001001100001101
01101011011101000000011110110010
11110010110110111111101111001101
00110110111011111011010111010011
11101001000101000000001010100010
01111011000100001000101101111010
10011110100010011000110101110000
10011011100000001010000101011101
01110011011100110111101011010011
11111000100100101000100101101110
11011011110000100001001000010101
10010100100010101000100001011001
00011110000101101110101011011001
10100110011110001111000100010001
10011110100011101110110111011001
00111011110100101000101100111011
01010000111110111111001010001001
01001000100110100000110111101111
00011101100000111000101100100100
01010100110011110000010011110011
01100011010101001101001000000010
10100111001101000100100101100010
10111110110010001000110101110011
01011001001011000111011011000010
01010000011001111000100110110010
01100100110011000110000000010011
01001011110100110111011111010011
00111110111111010111010011011001
01000011001110101101001010101000
10010100011010110100000101100101
01010001110010110000101011010110
11100100011011010010000110100011
00100110100000101000101100111100
11001110101100101001000100000101
01011001010111101111001011010011
00111110100100111111110110111101
01101011111001010110111010100010
00100011011101001111001000011010
10111110000011011000101001011000
10101010101100001111001100001100
01110001010111010000100101100110
01111011000111101101101010011100
11101000110100110010011110111111
00110111010100111111101011011101
11010001000011011100110011011100
11101110111100110111100100110111
01100011111100110111010100011011
10011111001000011000111001011100
11000000110010000011000111010011
11010010101111100010011101101010
10101100100000101000110101111000
00100111110100111000111100101101
00110111110001110101111001010001
00010100100100111001001100001101
10100111001001001100010000111100
01110111011001010101011011000010
10000100111001010000010000110110
11101001000110000000111000100000
10000110101100011101011000011101
10100110011010001110000100001001
01111001010110101000101101110101
11011100100011101010010111011001
11011000101011100000110111100110
01010100100010111000101101010100
01101011111100110001111100101111
11010101000011000010100001000000
11001001010011000101001110100110
01101011000111000010101110101010
10000100111010111111001000000101
00100110110100010000100101110001
00101011100100000000110111111010
10010101000110011001100001000000
10100011001101001111011000001100
10001100001010000010110001101010
10101110100100001110111100011001
00001111001001000000010001101010
10101011101100101110001110101010
00101111001001010101111010111110
00010101001011000111010010010110
10100110010111010110000011010011
00101011110101010110110011100011
01011011001000110000111011101110
10000000001111001110000000000000
01010010010110111111001111010111
01100101011110010110000101111010
10111100110100101000111101111101
10100100011001001100000000100001
10001100001110001100111010001100
00111111011001100000110001100010
11000000010000110100101100010110
10010010010000010010000000010101
01011001000111001110001010001001
