11100101110001011001111111100111011110100011011101100100011001000101011000110010110111100010111101110110100011100001001001110111
10111000100000101010001100010010010001101101111000001111100111100011011010001110101011000000010011101111011000000001010110000101
01011110000100000010000101110111110011101100110001010000111001110001100111111111011100111111010110001001011010101101100011101000
00011010110000101100111000111000000110110101101110101111001110000010101000100101100101001000000011110100101100000010010101000011
10101011100011111011010110110110011101001111011000100110001100100000111110010010110100100000011011101001001011111100110001011000
11100101001111111110101111100011101110010010000111101001011001010101100100000000110110111111101101010000111101010111000010101010
01010110011110100101010011111101110001010111101001110000111000110010110111110001011101011011101100001011001010111111110100011110
00010000000110100000010000110000100001001100101001010010110100001000101011101101101100011001011010001011001110010100110110001001
11110110010000111011111111001111011110110011011110110111001000110010111110010010011011110100101111111000111000101000100001000000
00010110011100010110001001011110110001110000101001011011100001100111100010001011011010111001100110101000110000000101000111101110
11100101111011111101111010001111101100010000000001001010000110101101010011010000011111100011101100001110100011011110011010111000
10010111110000100000000001010100000011100100111010011100110001111000001101011111011011010100011010001001011010101001101011010001
10101011110001101000111101011000000100110011000100101101000101001111001000101101100010000000000001100111100001000011011110010001
11111001010111100001001010001010100101011000000000100001111111111111001011101000100111001011100101100111100011010111111000111001
00000010101000011110110101101101011110110010111100111111000010100110111000010111011001111100000011111000111000000100010001001100
00111110001100000110000011011101001000110000100000001001010010110110000000001111011010011100101000011000110100000101110110000111
10010011100000011101111011101001010110110111010111111110101010011000110101110101100110110110011110010000100111101000001101110011
00010110011110100011110011001001010000100000100011101000110001111100010111010101111110011011101100000000100010101111111110100111
11111011110010100011001111001010010100100011100011101100000111110011001110010010001011000010010111000001100011101011101110000011
00111100111010100010111011001101010000110000101010001100000101111010011100000111011000011101101000001010100100001110000100000001
01000010000011011010110110110001001011100110111110110110011010001110110010101101110100111000010010111101011101101100110011011100
10111010011010111011011110101000111101010000010000100101001100111011110010000100111101101001111001101100001011111110110101011000
00010010100011100000110001010000000010101100101010011010100100101010100011110111000100010101010010001011000110001010011100010101
11010110100000011111100111110111011010110111010100110111011011100001110100011010011001110100000111111000010000100000000111000100
10111010111011100010001011011100011101111000000000101101000110111011001010000110001010001000000011100011000000000110110100000001
10111000010101001110000110110000000100111111110110100111011110010011001010101100110101101001000011110101011001010011110110001000
11001101000101011011000100100111101001001110010100010111011011000101100010101010011101110010110010101111011011011001110011101100
00100010011010001111110111111011110101010111101110110011011010010010101111100101111100111011100011110000011000110101000011001110
10110011110011111001110011101001011110100111010111111100000000011000110111110110001101110110011101001001001011111000000011011001
00001110001001110110110011011001001010100000011001000110000000000010100000111111110100111110101010111010110110000010010001010111
00011100011101100011000100110111100001011100100000010101111111100011001010001100011011001001110000101111001001011111111110001100
01111111001000000110101011011000011110110001101111111101001001110111011100000011011010001100000111011000110000100011100110100011
