11101110010010000111000101101110111101000111101101001100011010100010011000100110111011000101111011100111111110011010001110100111
10100001101010000000011011110111001000000011010101110001011011000111100111110000011110110110001001001000110001010100000100011101
00010111000110110101011010010001101011111100111011111111100110001110011100001010001100110111001111101110100001000000100001111010
11000010101001000000110100101111000000010010100110100100010101000001110011110101110110101101100000011100011100110100001101011000
00011010001100111111010010010111011000000100101101001001111100000100110001100100011011110010111001101101101011011111000111010101
01010101000011101010111100001010110111111101101100000000100110101010011010010111100001001001110111000111110101111111110010100111
01111000101111111101010011010000110111011010111010001111101101001100011100001110010111101010001110111111001010100101111001101010
10010001101100101001110011010001011010011000110110110111010100010000101101001010010100110010000100001100001000000101100000001000
00000010000100010100011100011111110100101111011001001001111101001100010011101101111011001101111011110011111111011100001001101111
01110111100010100000001100010101100110011101011011010001000111100110000111011010010100001110001101111010010001101000111001101000
00011101011001111011000101110000110111000111111000001011001010110101100001010010000000001000110111110001011110111111011110100111
10001011010110010101011010010001011000101011011011111010110000011110001100111001011100100111000000101010000000000100001111101001
10001001111011000010000111100110000000000001000110110100010011110010100010110100100011001100100000011010111100010110001111010101
10011100011111101011000111100110100111010011100100010111010011111111111110000100000000011010100101010001010010000111101010011111
00110010001000100000011100011111000000111110011011101000011101100101000011111100111101001101111010110110101101111000010101000000
11100001101110100000101100011000010100111001011011110000000001101101001010010000000100001100010010111011000001100000110001111100
11001110110000010111100100001001111001101101100110101110101100011001010101111111101011101101101010010111011110111000000111001001
11100101111111110101000100000000110111011001111110101011101000111110001100010111000100000100001010010011001111000101111001101000
11000001110111010111000110000011101001000011010001001001110011001111100000110111000111000100101001010011110011000101001111011111
10000000100001110000100101010000010110111000011011100000111001011110100000110001010100001100001010110011011101000101011100111100
00111011001100110110111010111101001000011100101110110101001101110001011001101101111101100111010010001101101101011011000001000010
00011010101101111111010000110110011110010110111100100001001111011100110010100100001000001010111100010101111011011101011001011101
10101000111001010001100011010001001010101000100011101111000101010100100101011001010100110101000000001010001100000111000101001000
00100011100000000100001000011111100000101110011001011000101110000111011011101100101011101101011011101111100111111000000101101011
10000000101101100000000011000111000000010001010001100001010011011101100010110100000000011110111000111011010001000111011101011101
00010001101111001010011010101111000010010110101100110101010011001001111011100101101111111100100000001101100001110010101000011101
00110111001110011011011011110101001101001110111001010101000110100011011011101000101001110010010111100100100011011010100010110011
01110011000010101100011000001111000111011100111110100111110101001001011011001101110111101010101111011111101111110001011001000100
10011011000000011111010010010010111001101110110001101111101100011000000000111111101011100101111010010111001110011111001111001101
11101010001001000001101101011101010101111100101111111100000101000000000001100010011000000101010010011011001101101110010001110000
00110001111111111010010011110100001110010011011000110001010011000111111110101000000100111010000111101100100011000110111000111000
11000101100111000100001100011011100000110001011011000000111011101110010010111111110110001101111000011011010101100000010011111110
