1101010001
1010101110
0100101101
0010001110
1010011000
0101110110
0111000011
1010101010
1000010001
0000101101
0111110111
1000101001
0010000100
0111000100
1000111111
1100110111
1001101111
1111100111
0011000101
1011110111
1100111010
0111111111
1010101010
0000111101
0010000000
1111000100
0101110101
1101011111
1111011011
1000110011
0110101101
1000000100
