1101010000
1010101000
0100101101
1100001110
1010011000
0101110111
0111001111
1010101010
1010000010
0000100101
0111110111
1010101000
1011000100
0011100100
1000011111
1100111111
1111011011
1111000111
0011101101
1011100111
0110011010
0110111111
1011101011
1000011101
0010000000
1100000100
0101110111
0100011101
1111011111
1000111010
0110101110
1000000101
