1001010000
1110101100
1100101001
1011001100
0010011000
0101100111
1110000001
0110101010
1000011001
0000100101
0011110111
1000101001
1001000100
0110000110
1000111011
1000100111
1101001011
0111100011
1011000101
1011100111
1110011010
0111011101
1010101010
1000111001
1010000100
1100001110
0100111000
1101001111
1011011011
1010100010
0110101100
1000000000
