1101010001
1010001100
0100111001
1000001110
0010110000
0101010110
0101000111
1110101010
1000010001
0100100101
0111110111
1010101001
1011010100
0111000100
1000111111
1101100111
1001011011
0111100111
1011000101
1010100111
1100011010
0110011111
1010001010
1000011001
1010000001
1010011110
0101111100
1110011111
1111011011
1000100110
0100110101
1000000101
