0101010000
1100101100
0100101001
0010001100
1110011000
0101010111
0101000110
0110101010
1000011001
0000101101
0111110111
1000111001
1001000100
0111000000
1001111011
1100100110
1000011010
1111000111
1011010001
1011100111
1100011010
1110111111
1010101011
1000111101
1010000100
1110011110
0111111100
1101001111
1011011111
1000110010
0110111100
1101000101
