1101010000
1000101100
0100101001
1100000000
1010010000
0101010110
0100000111
0110101010
1000000001
0000000100
0111110111
1000000011
1001000000
0111100100
1010111111
1100110111
1000000011
1111000111
1011000011
1010100111
0110011010
0111110111
1110111011
1001111101
0010010000
1110001100
0101111101
1111011111
1111011011
1000010010
0110100101
1000101101
