0001010000
1010101100
0100111000
1110001110
1110010000
0101110111
0101001001
0010101010
0000000001
0100100101
0111110111
1010001011
1011000100
0111100100
1001111111
1100110111
1001001111
1111100111
1011001101
1011100111
1100011010
0111110111
1010111011
1000111101
0010010100
1100001100
0101111100
0101001111
1111111011
1000110100
0110101100
1000001100
