0001010000
1010111100
0100101001
0000101010
1010010000
0101010111
0110000101
1110101010
1000010101
0000100101
0110110111
1010101001
1001000100
0110100110
1011111111
1101110111
1001000111
1111000111
0011010101
1010110111
1100111010
0111110111
1010101011
0101011101
0010000100
1101000100
0110110000
0110011111
1111011011
1000010011
0110100101
1000000101
