0001010000
0111001100
0100100001
1000001110
1010010000
0101010111
0101100111
1111101010
1000011101
0000101101
0011110111
1010101000
1001000100
0111100100
1000010011
1100100111
1111011011
1110100011
1111000011
1010100111
1100011010
0111010111
1010101010
1000111001
1010000101
1011001110
0100110000
0110011111
1011011011
1000110111
0110100100
1000000101
